<unk>	0
<s>	0
</s>	0
<NEWLINE>	0
,	-3.28681
▁the	-3.34844
.	-3.43215
s	-3.64366
▁to	-3.94023
▁of	-4.0454
▁a	-4.0769
▁and	-4.17542
▁in	-4.39595
’	-4.56389
▁that	-4.63213
▁	-4.68553
ing	-4.93396
-	-4.97439
▁is	-5.00071
▁for	-5.09398
ed	-5.1452
▁on	-5.16334
▁“	-5.26365
t	-5.28986
▁with	-5.32674
▁it	-5.34685
▁was	-5.36881
▁The	-5.50432
▁I	-5.51183
'	-5.5351
▁be	-5.58068
▁as	-5.67818
”	-5.70575
e	-5.73428
▁are	-5.77027
▁he	-5.80305
▁have	-5.81025
d	-5.81387
▁from	-5.83954
▁at	-5.85537
:	-5.85956
▁by	-5.87971
▁this	-5.88863
▁not	-5.89106
▁an	-5.94324
▁his	-5.9738
▁we	-5.98079
▁said	-6.03729
▁you	-6.05008
ly	-6.07385
▁has	-6.08442
▁they	-6.1013
▁"	-6.10863
▁de	-6.12142
▁or	-6.1453
▁(	-6.16643
▁about	-6.25729
▁who	-6.27864
▁but	-6.31962
▁more	-6.34503
a	-6.34537
▁will	-6.35207
y	-6.35458
▁had	-6.37471
▁their	-6.38103
▁one	-6.42489
)	-6.4252
.”	-6.43729
▁can	-6.4465
▁would	-6.4545
▁Trump	-6.45865
"	-6.49444
o	-6.49764
▁do	-6.50656
re	-6.51166
▁out	-6.53305
▁were	-6.53923
▁which	-6.54684
▁been	-6.56436
▁all	-6.56817
m	-6.58928
▁up	-6.60361
▁A	-6.63236
▁like	-6.63405
▁people	-6.64545
er	-6.69485
?	-6.69547
▁In	-6.70115
▁also	-6.70346
al	-6.70425
▁what	-6.70453
▁her	-6.71251
▁—	-6.71998
n	-6.73357
▁there	-6.73439
/	-6.7412
▁so	-6.7473
▁just	-6.77309
▁no	-6.7761
▁It	-6.80758
▁than	-6.81284
▁if	-6.83766
▁report	-6.84065
▁she	-6.85733
▁when	-6.8738
▁time	-6.89848
▁some	-6.90218
▁its	-6.92234
▁into	-6.93649
r	-6.94797
▁over	-6.96677
▁But	-6.9681
▁other	-6.9765
▁them	-6.99838
▁Mueller	-6.99905
▁after	-7.0084
I	-7.01161
i	-7.02143
▁could	-7.03719
▁He	-7.04655
▁our	-7.05186
▁him	-7.06099
▁first	-7.08939
ve	-7.11065
▁And	-7.11238
▁because	-7.1151
▁new	-7.11661
▁get	-7.13604
▁make	-7.14454
f	-7.14586
▁e	-7.15282
▁your	-7.18076
▁how	-7.19077
▁two	-7.19426
en	-7.1987
▁que	-7.20891
▁my	-7.2136
▁only	-7.21963
▁any	-7.22019
▁president	-7.22863
▁most	-7.26516
▁then	-7.27066
▁now	-7.28316
▁even	-7.28352
."	-7.31218
▁This	-7.33676
▁back	-7.33887
S	-7.34197
▁me	-7.3445
▁think	-7.35281
▁year	-7.35985
▁last	-7.36409
es	-7.37135
▁years	-7.3759
▁o	-7.37749
▁where	-7.3896
▁don	-7.39934
ar	-7.40234
▁We	-7.40537
▁President	-7.42284
▁these	-7.42321
▁before	-7.42515
▁way	-7.42677
▁see	-7.43635
▁those	-7.4418
▁work	-7.44574
▁state	-7.46226
▁made	-7.46873
▁being	-7.47157
▁should	-7.47721
▁–	-7.48183
M	-7.48677
▁know	-7.48708
▁much	-7.49857
!	-7.50658
▁un	-7.52121
in	-7.52175
▁did	-7.52562
▁against	-7.52713
▁really	-7.53571
▁investigation	-7.54112
▁told	-7.5438
▁campaign	-7.54412
▁say	-7.55005
;	-7.5536
▁many	-7.57048
▁such	-7.57244
—	-7.57616
▁right	-7.57808
▁la	-7.5927
▁says	-7.5934
▁So	-7.59884
▁S	-7.60084
▁very	-7.60926
▁public	-7.61166
c	-7.61232
▁through	-7.61409
▁New	-7.62763
▁C	-7.62852
▁U	-7.64212
p	-7.6422
se	-7.64403
▁us	-7.64625
▁down	-7.65581
A	-7.65919
▁going	-7.65953
▁go	-7.66359
▁well	-7.66382
The	-7.6684
to	-7.67467
▁still	-7.67922
▁may	-7.69082
▁House	-7.69751
ll	-7.69903
▁take	-7.69923
▁That	-7.70185
▁want	-7.70349
]	-7.70622
▁April	-7.71009
▁team	-7.71937
▁while	-7.71974
▁B	-7.72911
▁own	-7.73133
▁off	-7.73973
▁‘	-7.74298
com	-7.74708
▁O	-7.75836
▁good	-7.76514
or	-7.76982
▁part	-7.7756
▁might	-7.77821
▁same	-7.78212
▁se	-7.78552
▁between	-7.79519
▁world	-7.79552
▁T	-7.7981
▁You	-7.79834
▁[	-7.7986
▁E	-7.80179
w	-7.80486
g	-7.8055
▁P	-7.80565
▁long	-7.81197
ther	-7.81507
▁da	-7.81651
l	-7.81715
▁As	-7.83549
▁lot	-7.84054
▁used	-7.84721
▁day	-7.84742
▁2019	-7.8505
during	-7.851
▁around	-7.85255
▁en	-7.85794
▁re	-7.86034
▁government	-7.87015
▁di	-7.87034
▁including	-7.87747
▁something	-7.88454
▁'	-7.88701
▁under	-7.8901
▁here	-7.89162
out	-7.89196
an	-7.90208
▁need	-7.90314
▁F	-7.91083
on	-7.9109
),	-7.91695
▁found	-7.92356
▁former	-7.92384
h	-7.92391
▁game	-7.92506
▁use	-7.92911
▁show	-7.93124
le	-7.93651
u	-7.93678
▁Russia	-7.93739
▁both	-7.94267
▁group	-7.94841
▁things	-7.95526
▁system	-7.95666
▁Facebook	-7.96634
▁story	-7.96642
▁never	-7.97023
b	-7.97183
▁does	-7.97281
▁another	-7.97449
▁didn	-7.97625
▁set	-7.97962
▁end	-7.98855
We	-7.98926
C	-8.0019
▁They	-8.00979
▁information	-8.01194
▁evidence	-8.01208
the	-8.02138
▁life	-8.02344
us	-8.02993
▁come	-8.03199
▁special	-8.03217
▁support	-8.03599
▁news	-8.03737
▁look	-8.03803
▁There	-8.0398
▁change	-8.03981
▁M	-8.04009
▁point	-8.04179
▁counsel	-8.04213
▁political	-8.04505
ers	-8.04662
▁case	-8.04777
th	-8.0494
▁per	-8.05071
▁according	-8.05117
k	-8.05553
▁different	-8.06367
▁million	-8.06548
▁help	-8.06922
D	-8.0754
▁put	-8.07772
ic	-8.08428
▁On	-8.08667
▁company	-8.08682
▁far	-8.09081
▁three	-8.09181
▁whe	-8.09554
▁White	-8.09646
▁For	-8.10114
▁media	-8.10138
▁Robert	-8.10746
▁got	-8.1084
▁since	-8.10845
▁few	-8.10886
2	-8.11536
▁When	-8.12059
It	-8.12059
ion	-8.12758
▁number	-8.13772
▁Mr	-8.13997
▁Barr	-8.1438
▁next	-8.14825
▁thing	-8.15259
▁-	-8.15316
7	-8.15713
▁later	-8.15925
▁week	-8.15966
▁Democrats	-8.15982
▁election	-8.16742
▁called	-8.16914
...	-8.17511
▁every	-8.1788
z	-8.18545
▁law	-8.1891
st	-8.18943
▁best	-8.19224
▁actually	-8.19355
▁women	-8.19818
▁home	-8.20855
1	-8.20937
▁find	-8.21141
▁office	-8.21262
▁working	-8.21341
▁country	-8.21345
▁D	-8.21642
de	-8.21871
▁least	-8.21884
▁power	-8.21984
▁Russian	-8.22104
▁too	-8.22132
able	-8.22238
▁She	-8.22355
▁better	-8.22397
▁kind	-8.22436
).	-8.22725
▁left	-8.22951
it	-8.23377
▁social	-8.23382
▁American	-8.2363
▁3	-8.23888
▁though	-8.24008
▁animals	-8.24759
▁future	-8.25063
▁place	-8.25478
▁already	-8.25596
is	-8.2591
If	-8.25978
ial	-8.26061
▁turn	-8.27506
▁die	-8.27699
▁again	-8.27765
te	-8.27857
▁fact	-8.28273
▁US	-8.29494
▁away	-8.29503
▁second	-8.29732
▁man	-8.29848
▁making	-8.30084
://	-8.31193
ity	-8.31196
▁police	-8.31763
▁fire	-8.32071
▁2018	-8.3234
▁release	-8.32964
ce	-8.32968
▁days	-8.33005
▁What	-8.33109
▁little	-8.33501
▁each	-8.3351
▁G	-8.33671
ation	-8.33718
▁keep	-8.33931
▁10	-8.33975
▁al	-8.34491
▁type	-8.34512
▁http	-8.34701
▁high	-8.34927
▁play	-8.34964
▁able	-8.35
▁less	-8.35294
and	-8.35538
▁May	-8.35598
▁start	-8.35606
▁News	-8.3583
▁process	-8.36099
▁sever	-8.36234
▁decision	-8.36306
▁One	-8.36369
▁R	-8.36379
▁why	-8.36463
0	-8.36474
▁person	-8.36847
▁video	-8.36903
▁call	-8.36914
▁Twitter	-8.37073
▁doesn	-8.37247
▁press	-8.37333
▁came	-8.38284
▁problem	-8.38399
▁K	-8.39092
▁1	-8.39529
▁Thursday	-8.39531
T	-8.39637
▁small	-8.40033
▁great	-8.40068
▁book	-8.40169
▁local	-8.40174
▁United	-8.40186
▁hard	-8.40733
▁Clinton	-8.40785
▁Congress	-8.40835
▁order	-8.40843
▁data	-8.40847
▁St	-8.4093
▁saying	-8.4122
est	-8.41317
▁wild	-8.41433
▁car	-8.41468
▁men	-8.4149
▁el	-8.4197
▁To	-8.42147
▁large	-8.42218
▁members	-8.42428
▁seen	-8.42522
ir	-8.42554
▁among	-8.42634
▁near	-8.4278
▁likely	-8.42798
▁month	-8.43172
▁obstruction	-8.43347
▁Democratic	-8.4336
▁open	-8.43364
▁big	-8.43372
B	-8.43424
6	-8.43553
▁clear	-8.43837
▁FBI	-8.44086
▁De	-8.44117
▁added	-8.44181
▁asked	-8.44316
▁2016	-8.44359
▁care	-8.44593
▁m	-8.44633
▁York	-8.44644
▁become	-8.4468
as	-8.45109
▁give	-8.45257
▁officials	-8.45311
▁free	-8.45446
▁20	-8.4571
au	-8.45904
▁Committee	-8.45964
▁5	-8.45983
▁statement	-8.46078
▁para	-8.46387
8	-8.46395
man	-8.47291
▁por	-8.47663
▁tell	-8.48033
▁feel	-8.48052
▁important	-8.48439
▁trying	-8.48479
▁mean	-8.49228
▁full	-8.49237
▁top	-8.49359
la	-8.4955
▁At	-8.49845
▁real	-8.49873
▁always	-8.50033
▁himself	-8.50036
▁anything	-8.501
▁today	-8.50113
▁run	-8.50318
▁s	-8.50505
▁within	-8.50634
▁justice	-8.50778
▁times	-8.50987
▁question	-8.51025
▁le	-8.51223
▁N	-8.51328
▁Department	-8.51436
▁No	-8.5151
▁released	-8.51826
▁done	-8.51834
▁del	-8.51857
▁co	-8.52005
▁federal	-8.52141
▁having	-8.5216
▁g	-8.52208
▁idea	-8.52337
▁Donald	-8.52842
▁went	-8.52991
▁believe	-8.53003
▁party	-8.53272
▁human	-8.53477
N	-8.5355
▁wrote	-8.53554
▁possible	-8.53554
▁until	-8.53554
▁across	-8.53623
▁face	-8.54241
▁development	-8.54296
▁night	-8.54324
▁season	-8.54636
▁school	-8.54679
▁general	-8.54764
▁family	-8.55015
▁late	-8.55283
▁using	-8.55336
▁em	-8.55346
▁doing	-8.5545
▁attack	-8.55555
▁wanted	-8.5565
▁enough	-8.5573
▁percent	-8.5575
▁line	-8.55767
▁States	-8.55774
▁city	-8.55782
▁ever	-8.55885
X	-8.55886
Q	-8.56274
▁...	-8.56453
▁together	-8.56464
▁Sanders	-8.56465
▁event	-8.56543
▁lead	-8.56745
▁con	-8.568
▁focus	-8.56847
▁19	-8.57115
il	-8.57164
▁thought	-8.57266
▁After	-8.57671
▁p	-8.57774
▁sure	-8.57905
▁energy	-8.57984
▁2	-8.58021
R	-8.58225
3	-8.58267
▁known	-8.58377
▁result	-8.58378
▁meeting	-8.58774
▁post	-8.58929
▁often	-8.59187
▁money	-8.59478
do	-8.59796
▁candidate	-8.59932
▁l	-8.59935
▁che	-8.60069
▁community	-8.60223
▁Comey	-8.60232
▁once	-8.60244
▁comes	-8.60244
▁policy	-8.60244
▁Whil	-8.60625
▁issue	-8.60713
▁4	-8.60916
▁industry	-8.60992
▁early	-8.61039
▁given	-8.61131
da	-8.61671
▁non	-8.6175
L	-8.61811
ta	-8.61822
▁national	-8.61825
▁hand	-8.62143
▁project	-8.62157
▁took	-8.62253
▁example	-8.62298
up	-8.62673
▁taken	-8.62918
▁recent	-8.63109
▁job	-8.63122
▁four	-8.63347
▁series	-8.6342
▁v	-8.63586
▁seem	-8.63603
ur	-8.63632
▁along	-8.63679
▁major	-8.63899
▁climate	-8.64172
▁must	-8.64696
▁key	-8.65088
ive	-8.65161
▁past	-8.65161
▁(@	-8.65796
▁na	-8.66042
▁let	-8.66325
▁staff	-8.66387
▁five	-8.66576
▁getting	-8.66628
▁c	-8.67042
am	-8.67116
▁form	-8.67222
E	-8.67225
▁outside	-8.67271
▁wasn	-8.67296
▁March	-8.67382
▁impeachment	-8.67382
▁Senate	-8.67409
co	-8.67418
5	-8.67668
▁van	-8.67679
▁y	-8.67978
▁Persis	-8.68196
▁control	-8.68357
▁i	-8.68584
ne	-8.68618
▁games	-8.68712
▁name	-8.68791
▁pay	-8.69007
▁court	-8.69054
▁University	-8.69869
▁State	-8.69984
▁15	-8.70354
4	-8.70456
▁plan	-8.70459
▁efforts	-8.70587
▁tax	-8.70668
▁attorney	-8.70716
▁um	-8.71019
▁official	-8.7132
less	-8.71324
O	-8.71332
▁tak	-8.71421
year	-8.71511
▁others	-8.71527
▁General	-8.71583
ies	-8.71597
▁film	-8.71756
▁experience	-8.72134
▁research	-8.72295
▁months	-8.72429
▁reported	-8.72541
ch	-8.72694
ary	-8.73106
el	-8.73125
▁move	-8.73304
▁However	-8.73361
▁With	-8.73444
▁create	-8.7388
▁reason	-8.74128
▁content	-8.74178
▁sense	-8.74188
▁claim	-8.74588
▁following	-8.74778
▁children	-8.75067
old	-8.75069
▁someone	-8.75124
▁isn	-8.75642
▁share	-8.75742
▁continue	-8.75771
no	-8.7579
▁toward	-8.75901
▁Eskander	-8.75958
▁guess	-8.75958
▁study	-8.75958
▁According	-8.75979
▁|	-8.76037
▁12	-8.76042
▁matter	-8.76053
▁return	-8.76385
▁business	-8.76778
▁personal	-8.76831
▁pre	-8.76952
▁role	-8.76959
ção	-8.77673
science	-8.77732
▁Rachel	-8.77857
ment	-8.77967
▁live	-8.78434
▁means	-8.78465
G	-8.78499
▁players	-8.78519
▁bad	-8.78573
▁behind	-8.78686
▁National	-8.78841
lmost	-8.78848
▁service	-8.78928
▁issues	-8.79018
▁groups	-8.79111
▁whole	-8.7912
F	-8.79434
of	-8.79515
▁Friday	-8.79612
▁response	-8.79838
▁legal	-8.7987
▁view	-8.79956
ia	-8.79999
▁coming	-8.80058
▁La	-8.80349
▁history	-8.80563
▁death	-8.80582
▁understand	-8.80732
▁version	-8.80753
▁am	-8.80763
▁current	-8.81257
▁looking	-8.81336
▁itself	-8.81515
▁however	-8.81521
pinto	-8.81627
spite	-8.81762
ism	-8.82156
▁bit	-8.82214
▁Washington	-8.82442
▁Wednesday	-8.82442
▁Wiblin	-8.82442
▁companies	-8.82442
▁further	-8.82444
▁yet	-8.82495
▁cost	-8.82587
be	-8.8275
▁An	-8.82804
▁2017	-8.82857
▁All	-8.83054
▁allow	-8.83135
K	-8.83261
▁health	-8.83275
▁building	-8.83327
▁started	-8.8338
▁based	-8.83399
é	-8.83407
、	-8.83414
▁total	-8.83534
▁una	-8.84072
▁His	-8.84162
▁old	-8.84296
me	-8.84302
▁administration	-8.84374
▁conference	-8.84375
▁Justice	-8.84375
ist	-8.84388
▁McGahn	-8.84415
▁head	-8.84661
▁stop	-8.84723
▁try	-8.84785
at	-8.8485
▁states	-8.84853
▁Sessions	-8.85354
▁access	-8.85357
▁available	-8.85368
▁ago	-8.85378
ish	-8.85381
▁David	-8.85387
▁probably	-8.85387
▁deal	-8.85474
▁bring	-8.85796
▁fight	-8.8582
quite	-8.86003
▁request	-8.86129
▁themselves	-8.86344
▁knew	-8.86345
▁com	-8.86496
▁L	-8.86707
▁economic	-8.86726
▁member	-8.86796
▁H	-8.87072
▁course	-8.87359
▁self	-8.87405
▁@	-8.87668
▁anti	-8.87698
▁area	-8.87707
▁forward	-8.87713
ra	-8.8781
▁message	-8.87817
▁7	-8.87934
▁earlier	-8.88361
▁Attorney	-8.88407
▁won	-8.88471
ie	-8.8855
time	-8.8869
▁attempt	-8.8882
ten	-8.88886
▁il	-8.89221
▁pretty	-8.8939
▁include	-8.8957
▁talk	-8.89635
▁offer	-8.8966
li	-8.89744
▁amount	-8.89928
ite	-8.89963
▁By	-8.89986
▁potential	-8.90175
ma	-8.9022
v	-8.90221
▁market	-8.90245
▁der	-8.90273
▁love	-8.90342
▁everyone	-8.90425
▁North	-8.90458
▁saw	-8.90547
▁via	-8.90586
▁hope	-8.90692
▁land	-8.90737
▁Man	-8.90776
▁ma	-8.90838
▁war	-8.9113
▁similar	-8.91208
▁action	-8.91257
▁nothing	-8.9151
▁How	-8.9174
ting	-8.91889
▁animal	-8.92025
ry	-8.92105
▁Some	-8.92492
▁security	-8.92558
▁director	-8.92564
▁read	-8.9264
▁hours	-8.92665
▁follow	-8.92809
x	-8.92923
▁9	-8.93123
▁questions	-8.93236
▁t	-8.9337
▁force	-8.93741
▁true	-8.93768
▁&	-8.93808
▁nucle	-8.93845
▁win	-8.93942
▁act	-8.94084
▁needed	-8.94164
▁30	-8.94205
▁level	-8.94378
▁side	-8.94605
▁half	-8.94639
の	-8.94645
▁paper	-8.94672
▁sort	-8.94697
▁began	-8.94698
▁young	-8.9475
▁pro	-8.94818
▁Times	-8.95066
▁San	-8.9562
▁claims	-8.95639
▁rather	-8.9574
▁global	-8.95742
▁average	-8.95752
▁John	-8.95791
▁woman	-8.95817
▁hit	-8.95871
This	-8.95905
▁à	-8.95908
▁son	-8.9594
▁vote	-8.96015
▁involved	-8.96076
ul	-8.96225
▁provide	-8.96585
ado	-8.96774
▁running	-8.96832
▁su	-8.96935
▁interview	-8.96938
▁sent	-8.96963
▁anyone	-8.96991
▁body	-8.9704
▁interest	-8.97404
ca	-8.97878
▁list	-8.97913
gave	-8.97931
▁criminal	-8.97936
▁oil	-8.9803
ng	-8.98125
▁si	-8.98241
▁seems	-8.98245
▁ability	-8.98368
▁shows	-8.98562
ness	-8.98636
▁position	-8.98743
▁class	-8.98818
ter	-8.98895
▁changes	-8.98946
os	-8.99088
▁worked	-8.99526
▁expect	-8.9962
▁Republican	-8.99895
▁population	-8.999
▁entire	-8.99963
▁simply	-9.00196
▁committee	-9.00196
▁Now	-9.00281
W	-9.00319
P	-9.00349
▁build	-9.00619
ge	-9.00893
▁services	-9.01113
▁email	-9.01119
age	-9.01158
▁Michael	-9.01368
▁field	-9.0158
▁due	-9.01628
▁needs	-9.02217
▁billion	-9.02244
▁strong	-9.02439
▁six	-9.02512
▁Cohen	-9.02527
nior	-9.02563
▁speak	-9.02708
▁6	-9.02768
▁{	-9.03682
▁multiple	-9.03686
▁everything	-9.03716
▁especially	-9.03738
▁b	-9.03748
based	-9.03972
▁exist	-9.04006
▁term	-9.04136
▁W	-9.04656
un	-9.04703
▁front	-9.04807
▁los	-9.04851
▁became	-9.04876
▁China	-9.04878
▁City	-9.04978
▁terms	-9.05098
▁elections	-9.05115
▁page	-9.05118
▁higher	-9.05123
▁included	-9.05226
▁18	-9.0534
▁met	-9.05395
▁private	-9.05834
▁account	-9.05868
▁episode	-9.05925
▁London	-9.0608
▁pick	-9.06102
▁age	-9.0631
ern	-9.06406
▁happened	-9.0657
9	-9.06786
▁short	-9.06943
▁certain	-9.07118
▁é	-9.07235
▁moment	-9.07283
▁Tuesday	-9.07306
▁analysis	-9.07318
▁announced	-9.07422
▁Not	-9.07424
▁online	-9.07824
▁close	-9.07872
▁reach	-9.08049
▁couldn	-9.08214
um	-9.0837
▁America	-9.08385
▁phone	-9.08436
▁welfare	-9.08534
▁third	-9.08621
▁else	-9.08647
▁notes	-9.08683
▁received	-9.08768
▁11	-9.08965
▁candidates	-9.09008
▁stand	-9.09024
▁results	-9.0907
coming	-9.09096
▁influence	-9.09124
▁actions	-9.09144
▁cover	-9.09167
ro	-9.09279
men	-9.09379
▁require	-9.09688
▁black	-9.09719
▁Brisbane	-9.09784
▁specific	-9.09788
▁period	-9.09802
▁California	-9.09814
▁religious	-9.09814
H	-9.0982
▁Notre	-9.09938
▁gas	-9.09947
▁white	-9.10041
▁lack	-9.10326
▁lives	-9.10805
▁fel	-9.10906
▁Strasser	-9.10921
▁2017,	-9.10952
▁Al	-9.10965
▁Obama	-9.1105
▁South	-9.11068
▁Saudi	-9.11069
▁light	-9.11084
▁Yang	-9.11094
▁Do	-9.11126
▁16	-9.1118
▁takes	-9.1149
▁final	-9.11581
▁hands	-9.11636
▁users	-9.11655
▁14	-9.11761
▁Here	-9.11789
ina	-9.11968
▁2020	-9.1197
▁--	-9.12011
▁het	-9.12167
▁protect	-9.12235
▁Warren	-9.12334
▁single	-9.12343
▁intelligence	-9.12386
▁either	-9.12404
▁risk	-9.12437
▁leader	-9.12609
▁emails	-9.12647
▁meet	-9.12967
▁comment	-9.13067
▁workers	-9.13145
▁prevent	-9.13227
▁Un	-9.13284
▁air	-9.13364
he	-9.13419
▁mind	-9.13469
▁Smith	-9.13631
▁stories	-9.13631
▁send	-9.13652
▁Party	-9.13662
▁Re	-9.13704
▁tried	-9.13739
▁source	-9.13803
▁held	-9.1385
▁soon	-9.13912
▁numbers	-9.1408
▁test	-9.14103
ó	-9.1413
▁push	-9.14235
▁respond	-9.14357
▁Read	-9.14424
▁approach	-9.14868
▁#	-9.14899
▁morning	-9.14965
▁article	-9.14973
▁quickly	-9.15078
▁rest	-9.15078
▁decided	-9.15183
▁rules	-9.15195
▁8	-9.15312
▁appeared	-9.15366
▁2015	-9.1544
ou	-9.15606
J	-9.15837
▁talking	-9.15881
▁pull	-9.16292
▁Canada	-9.16314
▁individual	-9.16372
▁review	-9.16373
▁instead	-9.16373
▁brain	-9.16408
▁fans	-9.16475
▁rate	-9.16493
▁word	-9.16504
line	-9.16663
▁created	-9.16761
▁21	-9.16919
▁cut	-9.17105
▁increase	-9.17398
▁biggest	-9.17631
▁walk	-9.17631
▁impact	-9.17633
▁visit	-9.17667
▁}	-9.17695
▁false	-9.17712
▁More	-9.17746
▁cannot	-9.17762
▁weeks	-9.17956
▁inside	-9.18331
▁remain	-9.1841
▁answer	-9.1857
▁base	-9.18737
id	-9.18941
▁Flynn	-9.19001
▁Viagra	-9.19001
nsea	-9.19008
▁June	-9.19009
▁solar	-9.1905
▁European	-9.1906
▁buy	-9.19079
▁situation	-9.19135
▁letter	-9.19147
▁mental	-9.19154
ha	-9.19169
▁income	-9.19205
▁check	-9.19271
▁currently	-9.1934
▁J	-9.19508
You	-9.19532
ally	-9.20049
po	-9.20063
▁step	-9.20103
__	-9.20131
▁led	-9.20293
?”	-9.20314
▁played	-9.2036
▁brought	-9.20392
。	-9.20393
▁Court	-9.2041
▁movement	-9.20414
▁engine	-9.20422
▁op	-9.20469
▁threat	-9.20513
▁race	-9.20519
▁road	-9.20561
▁executive	-9.20573
▁effort	-9.20609
▁heard	-9.20732
ized	-9.20812
assets	-9.2086
▁Z	-9.20993
▁lost	-9.21022
▁character	-9.21175
▁13	-9.2122
▁species	-9.21799
▁huge	-9.21848
":	-9.21906
▁speaker	-9.22094
ling	-9.22119
▁water	-9.22121
▁continued	-9.22335
▁systems	-9.22376
▁17	-9.22429
▁dis	-9.22493
▁El	-9.22556
▁present	-9.22732
▁hold	-9.22901
▁previous	-9.22994
▁addition	-9.23032
▁ex	-9.23142
▁attention	-9.23227
▁spent	-9.2323
▁couple	-9.23255
▁society	-9.23272
▁ask	-9.23382
▁ball	-9.23459
▁happen	-9.23648
▁longer	-9.23738
▁humans	-9.24095
%	-9.24242
▁financial	-9.2443
▁ways	-9.24438
▁cases	-9.24465
▁main	-9.24473
▁original	-9.24539
▁child	-9.24675
▁wrong	-9.24676
▁BioWare	-9.24676
▁World	-9.24677
▁library	-9.24724
▁design	-9.24796
▁finally	-9.24944
et	-9.24991
▁reports	-9.25014
▁player	-9.25369
▁expected	-9.2543
▁Even	-9.25773
U	-9.25819
▁popular	-9.26129
▁space	-9.26197
▁charge	-9.2622
▁leaders	-9.26221
▁Dame	-9.26474
▁Image	-9.2658
▁rights	-9.26637
▁ge	-9.26737
▁track	-9.2684
em	-9.26883
▁views	-9.27282
▁particular	-9.27407
▁das	-9.27493
▁difficult	-9.27495
▁above	-9.2764
▁countries	-9.27641
▁Monday	-9.27642
▁military	-9.27668
▁program	-9.27902
▁calls	-9.28022
▁probe	-9.28063
▁recently	-9.28083
lo	-9.28221
▁record	-9.28257
▁alleged	-9.28267
▁showed	-9.28374
▁und	-9.28578
▁een	-9.28594
ous	-9.28614
▁goal	-9.28669
▁success	-9.28988
▁words	-9.29048
▁red	-9.29053
arrison	-9.29114
▁damage	-9.29155
▁James	-9.29213
der	-9.29236
▁documents	-9.2945
▁board	-9.29491
ga	-9.29492
▁bill	-9.29572
He	-9.29757
▁Dr	-9.29837
ance	-9.29965
▁house	-9.2998
▁changed	-9.3021
▁points	-9.30522
▁Australia	-9.30572
▁0	-9.30628
▁experiences	-9.30684
▁female	-9.30693
▁digital	-9.30693
▁chance	-9.30697
▁Also	-9.30703
▁Florida	-9.30722
▁increasing	-9.30732
▁Yeah	-9.30773
one	-9.3078
▁published	-9.30798
▁low	-9.30812
▁title	-9.30879
land	-9.30934
▁size	-9.30962
▁cause	-9.31133
▁price	-9.31206
▁25	-9.31275
▁deliver	-9.31311
▁My	-9.31719
▁product	-9.32056
▁significant	-9.32084
_	-9.32235
▁speech	-9.32256
▁language	-9.32257
▁discrimination	-9.32293
▁From	-9.32308
ought	-9.3231
▁plans	-9.32325
▁lower	-9.32401
▁status	-9.32415
▁books	-9.32446
▁bid	-9.32501
ian	-9.32522
▁described	-9.32543
▁TV	-9.32549
▁movie	-9.32709
▁Bill	-9.32715
▁leave	-9.32744
▁network	-9.32807
▁app	-9.33062
▁feature	-9.33133
▁interesting	-9.33285
like	-9.33356
go	-9.33687
▁League	-9.33843
▁shift	-9.33843
▁Police	-9.33843
▁usual	-9.33865
▁medical	-9.3388
▁violence	-9.3388
▁extreme	-9.3394
▁room	-9.34001
▁town	-9.3408
▁students	-9.34096
▁Go	-9.34202
▁lawyer	-9.34458
▁Be	-9.34549
related	-9.34559
▁crime	-9.34583
▁accept	-9.34865
ti	-9.35071
ine	-9.35207
che	-9.35223
▁individuals	-9.35343
▁Omar	-9.35463
▁father	-9.3547
▁suggest	-9.35487
▁First	-9.35509
▁throw	-9.35509
▁paid	-9.35605
▁Post	-9.35743
▁problems	-9.35748
▁learn	-9.35765
▁goes	-9.35843
▁passed	-9.36002
▁hospital	-9.3602
▁natural	-9.3618
▁ha	-9.36267
▁22	-9.36343
▁launch	-9.36566
▁William	-9.36803
ri	-9.36951
è	-9.36965
▁Star	-9.37021
▁positive	-9.37096
▁international	-9.37096
▁foreign	-9.37096
▁pressure	-9.37111
▁pic	-9.37113
▁mother	-9.37119
▁Park	-9.37127
▁chief	-9.37242
▁=	-9.37418
▁required	-9.37609
▁Our	-9.37621
▁events	-9.38048
way	-9.38128
▁address	-9.38161
▁block	-9.38176
▁voters	-9.38305
ent	-9.38332
▁charges	-9.38338
,000	-9.38634
▁coach	-9.38703
▁Images	-9.38726
ichael	-9.3873
▁regard	-9.38745
▁music	-9.38748
▁built	-9.38762
を	-9.38771
▁weekend	-9.38791
▁Frostbite	-9.38801
▁Fox	-9.38854
が	-9.39012
▁du	-9.39079
ional	-9.39205
▁clearly	-9.39364
▁effects	-9.39388
end	-9.39528
not	-9.39576
▁platform	-9.39598
▁V	-9.39863
na	-9.40037
In	-9.40039
▁spoke	-9.40331
▁w	-9.40341
▁era	-9.40379
▁simple	-9.40386
▁hundred	-9.40457
▁authorities	-9.40463
▁Disney	-9.40464
▁Chairman	-9.40466
▁Counsel	-9.40466
▁direction	-9.40502
▁avoid	-9.40543
▁consider	-9.40577
▁direct	-9.4059
▁West	-9.40787
▁des	-9.40806
ad	-9.40818
▁50	-9.4109
▁hear	-9.41122
▁gets	-9.41139
▁Sen	-9.41206
▁details	-9.41231
▁website	-9.41284
▁represent	-9.41376
▁site	-9.41556
▁league	-9.41562
j	-9.41597
▁receive	-9.41771
▁complete	-9.41865
▁employees	-9.41998
▁reasons	-9.42034
off	-9.42039
Getty	-9.42092
There	-9.42145
▁Intelligence	-9.42181
▁January	-9.42181
▁technology	-9.42181
▁beyond	-9.42183
▁não	-9.42188
▁defense	-9.42222
▁nature	-9.42226
▁conspiracy	-9.42238
▁break	-9.42256
▁written	-9.42265
den	-9.42267
▁below	-9.42295
▁Co	-9.42297
▁Out	-9.42302
▁lo	-9.42444
▁previously	-9.42463
▁certainly	-9.42512
▁den	-9.42603
▁stay	-9.42653
▁scene	-9.43038
▁allowed	-9.43289
side	-9.43611
day	-9.43612
▁Americans	-9.43684
ton	-9.43784
▁ve	-9.43899
▁February	-9.43935
▁opportunity	-9.43935
twitter	-9.43935
▁Follow	-9.43935
▁Jersey	-9.43935
▁Special	-9.43958
▁living	-9.43993
▁reality	-9.43999
▁maybe	-9.44061
▁cast	-9.44128
▁pass	-9.4414
▁additional	-9.4418
▁contact	-9.44305
▁helped	-9.44467
▁aim	-9.44613
▁challenge	-9.44616
▁solution	-9.44893
▁shot	-9.44926
arious	-9.44927
que	-9.44945
▁develop	-9.44959
▁detail	-9.44981
▁mass	-9.45
▁battle	-9.45043
▁discuss	-9.45098
▁enter	-9.4517
▁tra	-9.45195
ão	-9.45268
(	-9.45318
▁drive	-9.45494
▁tend	-9.4563
▁heart	-9.457
▁Act	-9.45706
▁737	-9.45721
▁education	-9.45721
▁families	-9.45721
▁crisis	-9.45722
▁search	-9.45722
▁sexual	-9.45724
▁Otto	-9.45748
▁Putin	-9.45763
▁massive	-9.45764
ant	-9.45775
▁Those	-9.4583
▁findings	-9.46008
▁playing	-9.46108
▁wouldn	-9.46315
▁career	-9.4636
▁adding	-9.46379
▁War	-9.46404
▁join	-9.46433
▁$1	-9.465
ut	-9.46523
ical	-9.46549
▁voice	-9.46648
▁mission	-9.46715
▁value	-9.46742
▁organization	-9.46786
led	-9.46844
▁conduct	-9.47006
tic	-9.47101
im	-9.47174
▁Rep	-9.47369
ung	-9.47383
▁Center	-9.47539
▁2014	-9.47543
▁sometimes	-9.47544
▁perhaps	-9.47547
▁Federal	-9.47554
▁agency	-9.47565
▁County	-9.47599
▁Google	-9.47599
▁telling	-9.47669
They	-9.47675
▁aren	-9.47766
▁introduced	-9.47778
▁directly	-9.47789
▁starting	-9.47938
▁resources	-9.48006
▁appear	-9.48058
▁considered	-9.48164
+	-9.48206
▁believed	-9.48369
▁friend	-9.4846
▁attacks	-9.48529
▁Ma	-9.4854
▁er	-9.48596
▁relationship	-9.48628
▁fear	-9.48665
▁fun	-9.48996
▁reference	-9.49107
om	-9.49211
▁environment	-9.4923
▁star	-9.49274
▁deep	-9.49317
mente	-9.49381
▁Minister	-9.49391
▁easy	-9.49391
▁Hillary	-9.49399
▁committed	-9.49464
▁shooting	-9.49525
▁debate	-9.49537
▁como	-9.497
▁potentially	-9.49812
▁Republicans	-9.49904
▁ahead	-9.49963
):	-9.49977
ron	-9.50009
▁environmental	-9.50097
▁ly	-9.50238
▁interested	-9.50378
▁f	-9.50403
▁culture	-9.50502
▁effect	-9.50556
▁claimed	-9.50633
▁fuel	-9.50693
▁/	-9.50912
▁strike	-9.51148
▁Pa	-9.51176
▁Colorado	-9.51278
▁Another	-9.5128
▁incident	-9.5139
V	-9.51511
▁larger	-9.51571
▁24	-9.51587
▁areas	-9.51601
▁journalists	-9.51622
▁wants	-9.51701
rs	-9.51722
▁concerns	-9.51818
▁et	-9.51936
▁EU	-9.51964
nt	-9.51996
▁d	-9.52042
ay	-9.52131
▁Don	-9.52434
▁Or	-9.52447
▁guy	-9.5253
ize	-9.52598
▁author	-9.52635
▁thousands	-9.5279
▁ver	-9.52805
▁improve	-9.52877
▁Since	-9.52925
ful	-9.52952
▁actual	-9.53039
▁Paul	-9.53057
▁YouTube	-9.53201
▁legislation	-9.53204
▁possibility	-9.53205
▁performance	-9.53209
▁unique	-9.5321
▁cash	-9.53214
▁Burr	-9.53217
▁carry	-9.53244
▁worse	-9.5325
▁collusion	-9.53283
ty	-9.53301
▁18,	-9.53328
▁alone	-9.53333
▁laws	-9.53371
▁Just	-9.53385
▁ME	-9.53439
▁tech	-9.53441
▁completely	-9.53462
▁parents	-9.53563
▁particularly	-9.53566
▁door	-9.53632
▁user	-9.53838
▁internal	-9.54192
▁includes	-9.54215
▁argument	-9.54456
je	-9.54458
Y	-9.54484
ci	-9.54517
▁abortion	-9.54528
ted	-9.54592
ward	-9.54725
▁officer	-9.54966
▁Office	-9.55026
we	-9.55108
▁sign	-9.55119
▁Europe	-9.55126
▁Nadler	-9.55162
▁proposal	-9.55228
▁exactly	-9.55243
▁eight	-9.55282
▁Boyd	-9.55291
▁People	-9.55467
▁Dur	-9.55567
▁gone	-9.55585
▁add	-9.55614
▁thinking	-9.55746
▁date	-9.55955
▁exchange	-9.56004
▁reached	-9.56106
▁os	-9.5642
▁computer	-9.56524
▁club	-9.56536
▁Democrat	-9.56571
▁arrest	-9.56574
▁establish	-9.56584
▁meant	-9.56713
▁serious	-9.56982
▁dead	-9.57159
▁redacted	-9.57162
▁testimony	-9.57162
▁summer	-9.57162
▁opposition	-9.57163
▁material	-9.57197
▁British	-9.57209
▁Denver	-9.5721
▁Instead	-9.57242
▁Like	-9.57248
▁arm	-9.5728
▁concern	-9.57282
▁mais	-9.57409
▁seven	-9.57434
▁charged	-9.57573
▁im	-9.57606
▁training	-9.57652
▁minutes	-9.5773
▁shared	-9.57846
ble	-9.5795
▁contain	-9.58116
▁roll	-9.58139
>	-9.58242
▁measure	-9.5825
▁attend	-9.58449
▁border	-9.58607
▁liberal	-9.58619
ver	-9.58759
▁2016,	-9.58773
ier	-9.58832
▁touch	-9.58901
▁sex	-9.58929
ac	-9.58969
▁Suprem	-9.59048
▁December	-9.59202
▁Manafort	-9.59202
▁enjoy	-9.59202
▁physical	-9.59202
▁behavior	-9.59203
▁baby	-9.59204
▁School	-9.59204
▁Apple	-9.59208
▁floor	-9.59208
▁Director	-9.59224
▁food	-9.59253
▁fish	-9.59334
▁production	-9.59341
▁UK	-9.59393
▁safety	-9.59412
▁trade	-9.59434
▁declined	-9.59474
▁confirmed	-9.59611
▁removed	-9.59611
▁Air	-9.59631
▁jobs	-9.59767
▁raised	-9.59805
ach	-9.59836
▁ended	-9.60073
▁favor	-9.6008
▁plant	-9.60173
▁researchers	-9.60194
▁activists	-9.60227
▁sub	-9.60393
▁function	-9.60453
▁fall	-9.60469
▁conditions	-9.60505
▁nation	-9.60522
▁jail	-9.60666
▁center	-9.60729
▁100	-9.6073
▁publicly	-9.60902
▁returns	-9.61021
▁illegal	-9.61138
▁Kelly	-9.61286
▁Moore	-9.61286
▁Ireland	-9.61287
▁Jeff	-9.61287
▁software	-9.61287
▁beginning	-9.61289
▁common	-9.61292
▁enforcement	-9.61292
▁2012	-9.61294
▁knowledge	-9.61297
▁eventually	-9.61303
▁negative	-9.6131
▁Arabia	-9.61316
▁ensure	-9.6135
▁Le	-9.61378
▁elected	-9.61394
▁male	-9.61437
uch	-9.61504
term	-9.61535
▁throughout	-9.61566
▁mostly	-9.61614
▁round	-9.61664
▁calling	-9.61697
red	-9.61748
sh	-9.6175
▁supporters	-9.61811
▁limited	-9.61812
▁les	-9.61874
▁donations	-9.61882
▁weight	-9.61932
▁discussed	-9.61977
▁developed	-9.62008
▁designed	-9.62134
▁appears	-9.62148
▁weapons	-9.62192
son	-9.62228
▁code	-9.62332
▁explain	-9.62333
di	-9.62339
▁target	-9.62467
▁ideas	-9.62665
▁Report	-9.62686
▁reading	-9.62738
▁conflict	-9.62962
▁ground	-9.63068
ato	-9.63097
ities	-9.63102
▁steps	-9.63119
▁describe	-9.6314
▁ou	-9.63221
va	-9.63262
▁pitch	-9.63359
▁comments	-9.63404
▁Kaplan	-9.63413
▁strategy	-9.63413
▁wife	-9.63414
▁Media	-9.63414
▁capacity	-9.63426
▁AKP	-9.63484
▁overall	-9.6349
▁RT	-9.63496
▁travel	-9.63502
▁Why	-9.63665
▁von	-9.63762
に	-9.63768
▁Of	-9.63957
nd	-9.63989
▁God	-9.64041
▁arrested	-9.64043
Fi	-9.64114
ex	-9.64136
▁learned	-9.64196
▁document	-9.64354
▁fix	-9.64385
gen	-9.64409
▁provided	-9.64474
right	-9.64593
▁followed	-9.64603
ck	-9.64799
▁wait	-9.64859
▁allows	-9.64904
▁rule	-9.64972
▁ban	-9.65041
▁posted	-9.6509
▁pilot	-9.65141
▁piece	-9.65255
over	-9.65271
▁judge	-9.65285
▁remains	-9.65351
▁journalist	-9.65397
▁slow	-9.65494
▁NFL	-9.65587
▁writing	-9.65587
▁Judiciary	-9.65588
▁Brian	-9.65588
▁primary	-9.6559
▁Mark	-9.65591
▁brand	-9.656
▁truth	-9.65606
▁specifically	-9.65612
▁scale	-9.65628
▁Link	-9.65629
▁voting	-9.65644
▁ultimately	-9.65693
▁politics	-9.65701
▁repeatedly	-9.65801
▁speed	-9.65807
▁allegations	-9.65912
▁donors	-9.65948
▁kids	-9.65969
▁40	-9.65992
▁signed	-9.66238
▁friends	-9.66473
▁faced	-9.6651
▁kill	-9.66567
▁fired	-9.66746
ever	-9.66829
▁Let	-9.66899
▁features	-9.67014
ze	-9.67153
▁stage	-9.67235
▁protest	-9.67295
▁sell	-9.67306
▁minor	-9.67372
▁street	-9.67446
▁student	-9.67487
▁successful	-9.67584
▁obvious	-9.67608
▁progress	-9.67661
▁effective	-9.67752
▁sources	-9.67777
▁Brown	-9.67808
▁Street	-9.6781
▁encourage	-9.6781
▁Tesla	-9.6781
▁minister	-9.67813
pe	-9.67816
▁budget	-9.67842
▁French	-9.67863
▁Texas	-9.67883
▁immediately	-9.67907
▁Last	-9.6791
▁essentially	-9.67923
▁accused	-9.67961
▁giving	-9.67967
▁basis	-9.67996
Subs	-9.6803
▁hour	-9.68032
▁Because	-9.68055
▁bir	-9.68105
▁quote	-9.68186
▁card	-9.68189
▁ti	-9.68195
í	-9.68273
▁Em	-9.68303
ag	-9.68586
▁guys	-9.68593
▁fan	-9.6867
▁fit	-9.68876
if	-9.68893
▁named	-9.69062
ba	-9.69147
llegedly	-9.69275
▁grand	-9.69292
▁2019.	-9.69502
▁millions	-9.69511
▁lie	-9.69512
▁perform	-9.69612
▁dell	-9.69656
▁reform	-9.69676
▁subject	-9.69734
▁capital	-9.69751
▁sound	-9.69796
▁continues	-9.69846
▁link	-9.69869
▁prior	-9.7006
▁traffic	-9.7008
▁westbrook	-9.70082
Although	-9.70082
▁Murray	-9.70083
▁happy	-9.70083
▁Wipro	-9.70084
▁Association	-9.7009
▁Assange	-9.70115
▁growth	-9.70136
▁interference	-9.70161
▁apparently	-9.70198
▁fast	-9.70264
▁vi	-9.70266
▁trust	-9.70295
brian	-9.70299
▁CNN	-9.70317
▁agreed	-9.70337
▁Se	-9.70443
io	-9.70477
rt	-9.70498
▁failed	-9.70519
▁tweeted	-9.70541
▁increased	-9.70594
▁finding	-9.70651
▁hearing	-9.70735
▁range	-9.70759
▁votes	-9.70925
▁spot	-9.70944
▁forces	-9.71051
▁n	-9.71084
mp	-9.71261
▁purchase	-9.71335
▁watch	-9.71337
▁:	-9.71364
That	-9.71491
▁Her	-9.71532
▁implement	-9.71787
▁safe	-9.71794
▁23	-9.7184
▁gun	-9.71932
ven	-9.72009
▁serve	-9.72027
▁professor	-9.7206
▁gain	-9.72086
▁conversation	-9.72142
▁16,	-9.72173
▁quick	-9.72304
▁standard	-9.72338
▁church	-9.72386
▁Bernie	-9.72408
▁District	-9.72408
▁Institute	-9.72408
▁cannabis	-9.72408
▁democracy	-9.72408
▁narrative	-9.72408
▁relative	-9.72408
▁rough	-9.72409
▁policies	-9.72409
▁flight	-9.72412
▁internet	-9.72412
▁caption	-9.72414
▁middle	-9.7242
▁Other	-9.72437
▁Alberta	-9.7244
е	-9.72472
▁screen	-9.72476
▁perfect	-9.72481
ada	-9.72533
kept	-9.72621
▁central	-9.7282
▁es	-9.72854
▁growing	-9.72884
▁seeking	-9.73032
▁explained	-9.73059
per	-9.73169
▁active	-9.7321
▁directed	-9.73219
▁ten	-9.73273
▁ser	-9.73305
▁joined	-9.73322
▁Then	-9.73565
▁attempts	-9.73692
▁residents	-9.73706
ol	-9.73737
▁works	-9.73753
▁Earth	-9.74
▁gather	-9.74022
▁concept	-9.74091
mo	-9.74378
op	-9.74434
▁separate	-9.74472
▁conservative	-9.74509
▁Canadian	-9.74547
▁drug	-9.74554
▁song	-9.7457
▁German	-9.74617
▁manager	-9.74695
▁feeling	-9.74706
▁Research	-9.74752
▁complex	-9.74764
▁Council	-9.74789
▁Lewandowski	-9.74789
▁suspect	-9.74789
Though	-9.74789
▁typeGuard	-9.7479
▁Columbine	-9.74791
▁necessary	-9.74791
▁electricity	-9.74808
▁figure	-9.74808
▁color	-9.74809
▁fascism	-9.74823
▁science	-9.74823
▁Mo	-9.74826
▁Pais	-9.74827
▁Black	-9.74844
▁constitutional	-9.74849
▁majority	-9.74864
▁demand	-9.7487
▁management	-9.7488
▁Germany	-9.74964
▁Paris	-9.75014
▁revealed	-9.75032
▁LGBT	-9.75162
▁ready	-9.75187
▁suffering	-9.75189
▁rise	-9.75192
for	-9.752
▁entirely	-9.75283
▁hosted	-9.75337
▁concerned	-9.75489
▁officers	-9.75603
▁launched	-9.75654
▁stated	-9.7578
▁patients	-9.75923
▁politicians	-9.7612
event	-9.7618
–	-9.76282
white	-9.76297
▁products	-9.76378
ni	-9.76499
▁band	-9.76591
ndo	-9.76609
▁characters	-9.76881
▁image	-9.77048
▁choice	-9.77066
▁opinion	-9.77073
▁te	-9.77106
▁investment	-9.77118
▁reflect	-9.77166
▁worth	-9.77221
▁infrastructure	-9.77228
▁Public	-9.77228
▁football	-9.7723
▁caught	-9.77234
▁roof	-9.77234
▁section	-9.77237
▁barbar	-9.77244
▁Scott	-9.77287
▁super	-9.77295
▁GOP	-9.77332
▁images	-9.77357
▁ongoing	-9.77413
▁teams	-9.77449
nce	-9.77522
▁died	-9.77558
▁raise	-9.77707
▁Na	-9.77771
tion	-9.77785
▁shown	-9.77984
nna	-9.78019
▁Share	-9.78131
▁prove	-9.78143
RE	-9.78183
▁upon	-9.78214
▁mid	-9.78378
▁fine	-9.78524
▁28	-9.78671
▁asking	-9.78704
ig	-9.78724
▁suggests	-9.78749
▁brief	-9.7875
What	-9.78807
central	-9.78809
SE	-9.7884
▁larges	-9.78852
▁items	-9.78864
▁draft	-9.79115
▁boys	-9.79128
▁maintain	-9.79157
▁fighting	-9.79278
▁ca	-9.79426
▁region	-9.79464
▁broad	-9.79478
▁regular	-9.79495
▁Ben	-9.79496
▁lose	-9.79552
▁firm	-9.79591
▁reporters	-9.79617
▁girl	-9.79627
▁station	-9.79638
▁Chinese	-9.79728
▁Istanbul	-9.79728
▁presidency	-9.79728
▁Richard	-9.79729
▁economy	-9.7973
▁spread	-9.79731
▁match	-9.79736
▁Max	-9.79737
▁agreement	-9.79742
▁identified	-9.79751
▁pour	-9.79757
▁powerful	-9.79764
▁McKee	-9.79765
▁dozen	-9.79765
▁stuff	-9.79765
▁please	-9.79778
▁High	-9.79788
",	-9.79811
▁although	-9.79811
Scale	-9.79838
▁college	-9.7985
▁highest	-9.79886
▁figures	-9.79961
▁filed	-9.79978
let	-9.80155
▁smaller	-9.80229
▁practice	-9.80239
▁model	-9.80266
▁Both	-9.80423
は	-9.80599
▁looked	-9.80607
▁Wars	-9.807
▁organizations	-9.80808
▁customers	-9.80942
▁secret	-9.80975
▁guard	-9.81057
▁Over	-9.81365
page	-9.81474
▁congress	-9.81559
▁remember	-9.81568
▁Pro	-9.81788
more	-9.81819
▁threats	-9.81917
▁Israel	-9.81983
▁mark	-9.8201
▁decades	-9.82022
▁fair	-9.8206
▁poor	-9.82078
▁supposed	-9.82149
▁familiar	-9.82237
casio	-9.82264
uma	-9.82271
▁host	-9.82279
▁professional	-9.8228
▁benefit	-9.82284
Cortez	-9.82292
▁Moscow	-9.82292
▁November	-9.82292
▁agencies	-9.82292
▁console	-9.82293
▁straight	-9.82293
▁creating	-9.82294
▁Mike	-9.82295
▁extent	-9.82295
▁perspective	-9.82299
▁difference	-9.82302
▁2011	-9.82303
▁sector	-9.82306
Focus	-9.82315
▁daily	-9.82317
▁English	-9.82329
▁Hitler	-9.82329
▁Irish	-9.8233
▁moving	-9.82331
▁useful	-9.82341
▁Christian	-9.82345
▁Past	-9.82352
▁Modi	-9.8236
▁Two	-9.82378
▁Yet	-9.82379
▁July	-9.824
▁driving	-9.82402
jp	-9.82441
▁setting	-9.82468
▁quarter	-9.82481
iz	-9.8258
▁quality	-9.82587
ber	-9.82642
▁intent	-9.82664
▁streets	-9.82715
▁traditional	-9.8276
▁EA	-9.82786
と	-9.82857
▁moved	-9.83195
▁noted	-9.83558
▁Ha	-9.83762
▁schools	-9.83794
test	-9.83826
▁believes	-9.83936
But	-9.8403
▁compar	-9.84113
▁costs	-9.84138
▁Ro	-9.84313
▁extend	-9.8433
▁qui	-9.84438
▁gives	-9.84712
▁India	-9.8481
▁determine	-9.84812
ger	-9.84818
▁department	-9.84879
▁theory	-9.8489
▁tru	-9.84896
▁credit	-9.84909
▁England	-9.84924
▁George	-9.84924
▁carbon	-9.84924
▁inquiry	-9.84924
▁Alexandr	-9.84929
▁benefits	-9.84931
▁connection	-9.84939
▁respect	-9.84959
▁cathedral	-9.84962
▁adviser	-9.84973
▁harm	-9.8499
▁Who	-9.84996
▁Union	-9.85008
▁trial	-9.85011
▁Photo	-9.85034
▁angle	-9.85105
▁obviously	-9.85202
▁fake	-9.85215
▁investigators	-9.85246
▁Ja	-9.85295
.)	-9.8536
▁balance	-9.85381
▁decide	-9.85445
▁referr	-9.85576
▁provid	-9.8577
▁plays	-9.85795
▁pain	-9.86178
ley	-9.86211
wing	-9.86326
▁ao	-9.86471
▁count	-9.86664
Trump	-9.86705
‘	-9.86705
AP	-9.86766
90	-9.86773
down	-9.86863
▁ne	-9.86877
▁spend	-9.86899
▁moral	-9.87132
▁understanding	-9.87143
▁whom	-9.87209
▁abuse	-9.87237
▁produce	-9.87306
▁agree	-9.87307
▁microdose	-9.87317
▁Game	-9.87363
▁save	-9.87513
ack	-9.87523
vo	-9.87571
▁zu	-9.8762
Topics	-9.87623
▁Amazon	-9.87626
▁Yellowfly	-9.87626
▁responsibility	-9.87626
▁freedom	-9.87626
▁Harris	-9.87629
▁marijuana	-9.87632
▁leadership	-9.87637
▁Kenney	-9.87638
▁faith	-9.87642
▁Story	-9.87654
▁authority	-9.87662
▁therefore	-9.87663
▁catch	-9.8767
▁object	-9.87684
▁Green	-9.87708
▁je	-9.87714
▁Ledeen	-9.87717
▁rush	-9.87734
▁structure	-9.87743
▁parties	-9.87767
▁refused	-9.87834
für	-9.87906
▁generation	-9.87913
▁cu	-9.88068
ja	-9.88146
▁greater	-9.88169
▁killed	-9.88355
▁communications	-9.88394
ot	-9.88486
▁1.	-9.88508
ke	-9.88631
all	-9.88729
▁levels	-9.88763
▁heat	-9.88875
▁Bo	-9.88877
ak	-9.89017
▁k	-9.89039
▁haven	-9.89092
▁cross	-9.89191
▁remove	-9.89207
mid	-9.89238
50	-9.89472
▁Chris	-9.89493
▁ran	-9.89595
▁score	-9.89774
▁En	-9.89775
▁expand	-9.89794
▁eine	-9.89833
▁normal	-9.89976
▁tool	-9.89988
▁limit	-9.90029
▁statements	-9.90098
▁update	-9.90361
▁basic	-9.90398
OrConstructor	-9.90404
▁Francisco	-9.90404
▁NXIVM	-9.90404
▁className	-9.90404
▁schedule	-9.90404
▁victory	-9.90404
▁Taylor	-9.90404
▁regime	-9.90406
▁copyright	-9.90407
▁chose	-9.90411
▁Good	-9.90411
▁Jake	-9.90416
▁Adam	-9.90417
▁Sold	-9.90427
▁dark	-9.9043
▁treatment	-9.90432
▁confidence	-9.90471
▁France	-9.90479
▁Today	-9.90506
▁application	-9.90526
Height	-9.90531
▁drop	-9.90604
▁assets	-9.90619
▁store	-9.90623
▁Bu	-9.90766
ship	-9.90789
▁protests	-9.9087
▁sitt	-9.90926
▁apply	-9.9101
tra	-9.91225
▁refer	-9.91237
▁27	-9.91276
▁watching	-9.91291
▁modern	-9.91455
▁fully	-9.91497
▁responded	-9.91669
▁table	-9.91717
▁defend	-9.91728
▁foi	-9.91954
mos	-9.92061
ando	-9.92084
▁picture	-9.92095
@	-9.92124
qui	-9.92294
▁beliefs	-9.92347
▁sales	-9.92448
cy	-9.92545
▁ze	-9.92833
by	-9.92914
▁struggle	-9.92945
▁extra	-9.93077
▁initial	-9.93122
▁Venezuela	-9.93154
▁prison	-9.93179
▁fill	-9.93192
▁strength	-9.93224
▁coast	-9.93253
で	-9.93255
WzM	-9.93258
llWzMzMCwyNTAsIn	-9.9326
▁Advertisement	-9.93261
▁husband	-9.93261
▁2019-05-2	-9.93261
▁browser	-9.93262
▁display	-9.93271
▁05-2	-9.93273
▁herself	-9.93281
▁nine	-9.93295
▁Channel	-9.93303
▁Press	-9.93318
▁planned	-9.93341
▁jury	-9.93378
▁seek	-9.93401
▁Force	-9.93435
▁Under	-9.93444
▁partner	-9.93557
▁option	-9.93573
▁employee	-9.93573
▁decade	-9.93606
▁sanctions	-9.93615
▁protesters	-9.93655
▁proceedings	-9.9369
ious	-9.93843
▁Andreas	-9.93847
▁union	-9.93924
▁caused	-9.94063
▁briefing	-9.94109
▁Ed	-9.94124
▁contributions	-9.94319
▁box	-9.94379
▁willing	-9.9438
▁carrie	-9.94405
▁challenges	-9.94609
▁shouldn	-9.94665
Z	-9.94754
avernise	-9.94758
á	-9.95086
les	-9.95104
<	-9.95265
which	-9.95281
▁speaking	-9.9529
▁tweet	-9.95351
ions	-9.95429
link	-9.95451
▁standing	-9.95457
called	-9.95459
▁Sa	-9.95465
▁dealing	-9.95475
▁confirm	-9.95589
▁pa	-9.95731
▁farm	-9.95837
za	-9.95986
▁tools	-9.96085
▁2018.	-9.96114
▁witness	-9.96132
▁clean	-9.9619
▁Buttigieg	-9.96202
▁Commission	-9.96202
▁October	-9.96202
▁Welsh	-9.96202
▁easily	-9.96202
▁podcast	-9.96203
▁smart	-9.96203
▁competition	-9.96204
▁MORE	-9.96205
▁studies	-9.96206
▁jump	-9.96207
▁Andrew	-9.96208
▁stopped	-9.96214
▁myself	-9.96215
▁highlight	-9.96216
▁bigger	-9.96227
▁vast	-9.96231
▁cities	-9.9624
▁Haskins	-9.96245
▁prominent	-9.96259
▁blood	-9.9626
▁resolution	-9.96273
▁Daily	-9.96275
▁emotional	-9.96293
▁independent	-9.96301
ções	-9.96307
16	-9.96349
▁Vi	-9.96366
▁taxes	-9.96455
▁associate	-9.96512
▁doubt	-9.96526
▁enable	-9.96533
ile	-9.9656
▁contract	-9.96564
▁Jacobs	-9.96564
▁expressed	-9.96566
▁solve	-9.96566
▁critical	-9.96573
▁conclusion	-9.96578
▁photo	-9.96584
▁purpose	-9.96599
▁foot	-9.96607
-6/	-9.96839
▁fell	-9.96891
▁2.	-9.9704
ler	-9.97094
▁starts	-9.97168
▁aware	-9.97207
▁31	-9.97217
▁Look	-9.97294
▁incidents	-9.97314
▁killing	-9.97509
▁issued	-9.9754
▁covered	-9.97617
▁2019,	-9.97705
▁reporting	-9.97737
▁holding	-9.97737
▁depend	-9.98023
▁Dan	-9.98045
art	-9.98124
▁Ines	-9.9813
▁factors	-9.98167
▁Muslims	-9.98183
▁map	-9.9827
▁mere	-9.9831
with	-9.98312
▁involv	-9.98386
ating	-9.98476
▁vehicles	-9.98509
▁Ra	-9.98559
ick	-9.9857
▁writes	-9.98593
▁survey	-9.98604
ido	-9.98654
ists	-9.98865
ana	-9.98876
▁2013	-9.98879
▁art	-9.98901
log	-9.9894
▁stores	-9.99
hi	-9.9909
▁Korea	-9.99111
▁Syria	-9.99112
▁civil	-9.99185
▁journey	-9.9922
▁Lo	-9.99223
▁Papadopoulos	-9.99233
▁degree	-9.99233
▁Missouri	-9.99233
▁attitude	-9.99233
▁fossil	-9.99234
▁channel	-9.99234
Stock	-9.99234
▁activity	-9.99235
▁sabr	-9.99235
▁religion	-9.99235
▁Group	-9.99235
▁cognitive	-9.99235
▁property	-9.99237
▁lawmakers	-9.9924
▁Dragon	-9.99242
▁dollars	-9.99242
▁electric	-9.99253
▁coverage	-9.99263
▁activities	-9.99263
▁shut	-9.99268
▁criticism	-9.99278
▁principle	-9.99293
▁Project	-9.99305
▁warning	-9.99346
▁novel	-9.99347
▁length	-9.99363
▁Wood	-9.99375
▁server	-9.99452
▁h	-9.99464
▁subpoena	-9.99584
that	-9.99603
▁audience	-9.99605
ster	-9.99686
▁accounts	-9.99695
▁promote	-9.99798
▁X	-9.99979
▁consequences	-10.0002
▁cell	-10.0009
▁exercise	-10.0012
▁decisions	-10.0012
▁interests	-10.0028
▁Well	-10.003
▁suggested	-10.0035
▁types	-10.0036
▁provides	-10.0041
ook	-10.0044
ü	-10.0046
▁agents	-10.0047
▁;	-10.0062
▁happening	-10.0079
rá	-10.0082
▁Con	-10.0092
▁planet	-10.0092
▁testing	-10.0096
▁Ear	-10.0097
ação	-10.0098
▁obstruct	-10.0104
▁mo	-10.0113
▁requests	-10.0114
definitely	-10.0122
▁operations	-10.0128
game	-10.0129
life	-10.0141
▁records	-10.0147
▁draw	-10.0148
min	-10.015
ä	-10.0163
▁ri	-10.0173
▁obtain	-10.0177
▁train	-10.0178
▁pop	-10.0178
▁mode	-10.0206
▁double	-10.0216
ization	-10.0222
▁Effect	-10.0236
▁Microsoft	-10.0236
▁Pelosi	-10.0236
▁Rosenstein	-10.0236
▁encounter	-10.0236
▁Chief	-10.0236
▁twice	-10.0236
▁Simon	-10.0236
▁Blackfoot	-10.0236
▁newspaper	-10.0236
」	-10.0236
▁communities	-10.0237
▁worst	-10.0238
▁emergency	-10.0239
▁delay	-10.0239
▁otherwise	-10.024
▁repeated	-10.024
ancy	-10.024
▁cultural	-10.0241
▁text	-10.0243
▁Saturday	-10.0243
▁witnesses	-10.0244
▁Book	-10.0245
ate	-10.0245
▁partisan	-10.0249
vi	-10.0252
▁Most	-10.0255
▁widely	-10.0257
▁argued	-10.026
▁Can	-10.0262
い	-10.0263
▁meat	-10.0264
▁Did	-10.0268
▁bar	-10.0272
▁socialism	-10.0274
▁intended	-10.0277
▁hot	-10.0279
▁Age	-10.0283
▁Easter	-10.0287
▁file	-10.0289
▁device	-10.0291
▁pages	-10.0292
▁quest	-10.0292
▁connected	-10.0294
ción	-10.0299
▁camera	-10.03
work	-10.0301
▁rich	-10.0303
▁Red	-10.0314
mi	-10.0321
▁measures	-10.0329
▁loss	-10.0336
▁mis	-10.0349
▁Ho	-10.036
▁formal	-10.0361
▁acts	-10.037
▁Ru	-10.0377
▁recording	-10.039
▁affect	-10.0399
play	-10.0405
sen	-10.0423
▁vs	-10.0434
▁PA	-10.0443
▁prosecutors	-10.0455
▁instance	-10.0463
ho	-10.0467
pped	-10.0476
▁aide	-10.0486
▁happens	-10.0493
▁attacked	-10.0494
▁murder	-10.0496
ria	-10.0507
▁Mar	-10.0511
▁stat	-10.0512
▁options	-10.0525
▁auf	-10.0526
▁reduce	-10.0527
▁investigate	-10.0528
▁estimate	-10.0528
so	-10.0532
▁powers	-10.054
▁branch	-10.0551
▁bank	-10.0553
▁consult	-10.0553
▁typical	-10.0558
▁senator	-10.0558
▁Meanwhile	-10.0558
▁Utah	-10.0558
▁Health	-10.0558
▁Constitution	-10.0558
▁Secretary	-10.0559
▁DOJ	-10.0559
▁aircraft	-10.0559
▁talent	-10.0559
▁television	-10.0559
▁Jared	-10.0559
▁2010	-10.056
▁Rebellion	-10.056
▁annual	-10.0561
ny	-10.0562
▁facing	-10.0563
▁estate	-10.0565
▁flow	-10.057
▁Taco	-10.057
▁broken	-10.0577
▁Primitive	-10.0582
▁closer	-10.0585
▁concluded	-10.0588
zi	-10.0591
▁mu	-10.0594
▁opening	-10.06
▁virtual	-10.0601
▁funding	-10.0604
▁produced	-10.0606
▁allies	-10.0616
▁write	-10.0616
rit	-10.0623
ub	-10.0624
▁polling	-10.0625
▁thousand	-10.0628
▁Right	-10.0636
▁Get	-10.0643
▁spending	-10.0648
▁weren	-10.0651
▁string	-10.0657
▁projects	-10.0665
▁pas	-10.0676
▁inform	-10.0679
▁bu	-10.0682
▁presented	-10.0694
har	-10.0718
▁Die	-10.0718
▁dos	-10.0735
bo	-10.0739
▁po	-10.0741
00	-10.0744
▁Me	-10.0749
aking	-10.0754
▁fail	-10.0758
vel	-10.0763
lan	-10.0766
а	-10.077
efore	-10.0779
▁Los	-10.0784
our	-10.0787
▁ele	-10.0789
▁manage	-10.08
▁treat	-10.0831
▁destroy	-10.0836
▁crowd	-10.0836
▁cells	-10.0838
▁East	-10.0839
▁ta	-10.0845
▁29	-10.0847
▁photos	-10.0848
▁hat	-10.085
▁surface	-10.0865
gar	-10.0871
Extinction	-10.0892
▁Chicago	-10.0892
▁ISIS	-10.0892
▁Oculus	-10.0892
▁Ukraine	-10.0892
▁behalf	-10.0892
▁excited	-10.0892
▁libraries	-10.0892
▁International	-10.0892
▁judgment	-10.0892
▁spokesman	-10.0892
▁worry	-10.0893
▁construction	-10.0893
▁dangerous	-10.0893
▁personnel	-10.0893
▁testify	-10.0893
▁Island	-10.0894
▁favorite	-10.0894
▁electoral	-10.0894
▁guilty	-10.0895
▁heavi	-10.0897
▁Former	-10.0897
▁cars	-10.0897
▁install	-10.0897
▁Y	-10.0899
▁Hall	-10.0899
▁Please	-10.09
▁Lake	-10.09
▁Ross	-10.0901
▁camp	-10.0906
▁Strasserism	-10.0913
ın	-10.0923
▁absolutely	-10.0929
▁circumstances	-10.0935
▁Ex	-10.094
▁episodes	-10.0943
▁born	-10.0957
▁Su	-10.096
▁district	-10.0967
▁begin	-10.097
▁plus	-10.0971
▁vehicle	-10.0977
▁ra	-10.098
▁doctor	-10.0981
▁Nazi	-10.0989
▁established	-10.0992
▁sets	-10.0992
▁materials	-10.0993
▁boy	-10.0995
▁wind	-10.1004
▁Ga	-10.1016
▁accepted	-10.1016
▁mayor	-10.1016
▁ring	-10.1036
▁pushed	-10.1057
▁rid	-10.1072
▁earn	-10.1078
▁lines	-10.1082
▁placed	-10.1095
▁rais	-10.1095
▁lawyers	-10.1104
▁helping	-10.1105
▁Mass	-10.1107
▁prices	-10.1123
▁lay	-10.1124
▁pe	-10.1125
▁buildings	-10.1135
ified	-10.1143
string	-10.1144
Our	-10.1151
▁plane	-10.1155
are	-10.1156
▁quit	-10.116
lar	-10.1164
▁donat	-10.1169
▁aides	-10.1174
ç	-10.1186
eu	-10.1191
q	-10.1191
▁$2	-10.1191
40	-10.1202
▁thank	-10.1208
but	-10.1209
▁ce	-10.121
▁imagine	-10.1211
▁updates	-10.1212
▁wide	-10.1213
▁peace	-10.122
▁famous	-10.1223
▁hack	-10.1229
▁College	-10.1237
▁Michigan	-10.1237
▁Mifsud	-10.1237
▁ministro	-10.1237
▁narrow	-10.1237
▁Andromeda	-10.1237
▁afternoon	-10.1237
▁Tower	-10.1237
▁firing	-10.1237
▁Turkey	-10.1237
▁giant	-10.1237
▁sentence	-10.1237
▁identity	-10.1237
▁mainstream	-10.1238
▁basically	-10.1238
▁appearance	-10.1238
▁planning	-10.1238
▁Cain	-10.1239
▁terrible	-10.1241
▁Joe	-10.1252
▁counter	-10.1253
▁feet	-10.1254
▁injury	-10.1255
▁whatever	-10.1256
▁Free	-10.126
jo	-10.1261
▁Jr	-10.1262
▁presidente	-10.1266
▁conversations	-10.1276
▁las	-10.1277
ford	-10.1281
▁names	-10.1282
▁served	-10.1282
▁zone	-10.1282
▁hunt	-10.1292
▁arrived	-10.1294
▁cards	-10.1297
:00	-10.1299
▁Christ	-10.1302
▁treated	-10.1303
▁colleagues	-10.1308
▁*	-10.1311
AU	-10.1317
▁outcome	-10.1322
▁Peter	-10.1338
▁Ver	-10.1348
▁broke	-10.1367
▁manag	-10.1371
▁pi	-10.1379
▁register	-10.1381
than	-10.1386
▁breaking	-10.1406
▁bike	-10.1408
set	-10.1415
ram	-10.1428
▁developers	-10.1429
▁founded	-10.1433
ey	-10.1439
▁propos	-10.1442
▁grow	-10.1447
▁crimes	-10.1457
▁mit	-10.1461
▁2017.	-10.1467
▁correct	-10.1468
▁supporting	-10.1478
▁acting	-10.1478
▁fi	-10.1485
ă	-10.1493
▁runs	-10.1497
▁poll	-10.152
ud	-10.1527
▁wealth	-10.1576
▁notice	-10.1584
▁discover	-10.1584
▁crash	-10.1586
▁fundrais	-10.159
▁Parliament	-10.1594
▁Safety	-10.1594
▁WikiLeaks	-10.1594
▁advice	-10.1594
▁corporate	-10.1594
▁ALEC	-10.1594
▁archive	-10.1594
▁category	-10.1594
▁impossible	-10.1594
▁plastic	-10.1594
▁Ms	-10.1594
▁Virginia	-10.1594
▁investigating	-10.1594
▁panel	-10.1595
▁QB	-10.1595
▁sobre	-10.1596
▁privacy	-10.1596
▁rates	-10.1596
▁Gray	-10.1598
▁Sh	-10.1599
▁Central	-10.1599
▁Mexico	-10.1599
▁bottom	-10.1599
▁LSD	-10.1599
▁NBA	-10.1599
▁heavy	-10.1599
▁worried	-10.16
▁Back	-10.16
▁summary	-10.1602
▁technical	-10.1602
▁gap	-10.1603
▁Spring	-10.1606
▁Te	-10.1608
▁zero	-10.1614
▁Seth	-10.1619
▁businesses	-10.1623
▁realized	-10.1629
▁Rod	-10.1631
▁winning	-10.1638
▁ho	-10.1647
▁finished	-10.1647
fil	-10.1661
▁obtained	-10.1662
▁obstructed	-10.1663
▁sit	-10.1665
▁mentioned	-10.1667
▁Up	-10.1673
▁sat	-10.1682
▁closed	-10.1684
▁rank	-10.1687
▁scenario	-10.1689
▁dream	-10.1695
▁populations	-10.1698
▁chain	-10.1699
▁prospect	-10.1699
▁protection	-10.17
▁victim	-10.1702
▁gre	-10.1703
▁discussion	-10.1704
▁<	-10.1709
▁generally	-10.1712
▁conducted	-10.1712
▁scientists	-10.1717
▁tour	-10.172
.9	-10.1724
▁om	-10.1724
▁sale	-10.1733
▁voter	-10.1735
▁requirements	-10.1737
▁highly	-10.1738
▁fascist	-10.1742
▁transactions	-10.1747
▁note	-10.1749
▁accident	-10.175
▁hadn	-10.1758
▁solutions	-10.1763
▁supported	-10.177
▁Bro	-10.1786
▁talks	-10.1789
▁aan	-10.1795
▁seu	-10.1808
And	-10.1811
▁faces	-10.1813
▁Col	-10.1826
house	-10.1842
▁net	-10.1849
hour	-10.1877
▁mix	-10.1909
▁engines	-10.1913
▁defeat	-10.1925
▁collapse	-10.1932
ory	-10.1935
▁realize	-10.1938
▁Ne	-10.1939
▁honest	-10.1941
▁becomes	-10.1945
▁wish	-10.196
▁Turk	-10.1964
▁August	-10.1964
▁Cambridge	-10.1964
▁Policy	-10.1964
▁easier	-10.1964
▁phenomenon	-10.1964
▁Prime	-10.1964
▁identify	-10.1964
▁scandal	-10.1964
▁relevant	-10.1964
▁Conduent	-10.1964
▁transition	-10.1964
▁operating	-10.1964
▁punishment	-10.1965
▁explanation	-10.1965
▁responsible	-10.1966
▁Capitol	-10.1966
▁commercial	-10.1966
▁secretary	-10.1966
▁Hill	-10.1967
▁Leader	-10.1968
▁edition	-10.1968
▁leg	-10.1969
▁sich	-10.197
▁appropriate	-10.1973
▁historic	-10.1975
▁warned	-10.1975
▁hall	-10.1976
▁reasonable	-10.1978
▁violent	-10.198
ham	-10.1983
▁crazy	-10.1984
▁relie	-10.1987
▁documento	-10.1997
So	-10.1999
▁knows	-10.2006
▁standards	-10.2006
▁meaning	-10.2007
▁Hav	-10.2013
gi	-10.2025
▁Po	-10.2025
▁cited	-10.2033
▁samples	-10.2043
▁reporter	-10.205
▁est	-10.2052
▁sua	-10.2058
▁gli	-10.2058
▁voted	-10.207
▁reportedly	-10.2071
▁background	-10.2077
▁lawsuit	-10.2078
Jason	-10.2079
▁trend	-10.2082
▁opponents	-10.2082
▁belief	-10.2084
▁prosecutor	-10.2086
can	-10.209
▁cycle	-10.2093
▁experienced	-10.2103
▁signing	-10.2104
▁severe	-10.2112
ov	-10.2112
▁experts	-10.2112
▁citizens	-10.2112
▁considering	-10.2125
▁Er	-10.2126
lu	-10.2138
ken	-10.2154
▁compete	-10.2154
▁nor	-10.217
▁ter	-10.2173
▁parts	-10.2186
ok	-10.219
▁Wi	-10.2197
ah	-10.2203
▁sports	-10.2206
cat	-10.2236
No	-10.2238
▁offering	-10.2238
*	-10.2239
▁eye	-10.224
back	-10.2245
▁port	-10.2245
lick	-10.2248
▁AI	-10.2249
»	-10.2254
▁invest	-10.2268
▁waters	-10.2281
chi	-10.2288
▁remind	-10.229
30	-10.2293
Images	-10.2293
gue	-10.2311
▁opened	-10.2314
ning	-10.2318
▁engage	-10.2319
▁hasn	-10.2322
▁Cuba	-10.2337
▁wing	-10.2339
run	-10.234
▁mention	-10.234
▁log	-10.2346
▁south	-10.2347
▁Tom	-10.2347
▁cult	-10.2348
▁stick	-10.2348
Rourke	-10.2349
▁Energy	-10.2349
▁airplane	-10.2349
▁knife	-10.2349
▁offensive	-10.2349
▁Alabama	-10.2349
▁CEO	-10.2349
▁Cassie	-10.2349
▁phase	-10.2349
▁context	-10.2349
▁fresh	-10.2349
▁assault	-10.2349
▁announcement	-10.2349
▁domestic	-10.2351
▁Still	-10.2351
▁everybody	-10.2351
▁Instagram	-10.2351
▁2007	-10.2351
▁solid	-10.2352
▁Show	-10.2354
▁Swalwell	-10.2354
▁Western	-10.2356
▁duty	-10.2356
▁Martin	-10.2358
▁Data	-10.2359
democratic	-10.236
▁Sunday	-10.2362
▁capable	-10.2363
▁Fa	-10.2364
▁governor	-10.2365
ab	-10.2366
▁Watch	-10.2366
▁sa	-10.2368
▁Gregor	-10.2368
▁banned	-10.2371
▁410	-10.2374
ik	-10.2375
▁promised	-10.2376
▁sta	-10.2378
ww	-10.238
▁moments	-10.2398
idade	-10.2399
▁orders	-10.2401
▁profile	-10.2407
▁links	-10.2407
unch	-10.2411
▁par	-10.2411
▁numero	-10.2412
▁symptoms	-10.2418
▁secure	-10.2419
▁pieces	-10.2426
▁affected	-10.2427
▁migrants	-10.2428
▁cit	-10.244
▁operation	-10.2442
▁icon	-10.2443
ped	-10.2443
▁Per	-10.2446
▁watched	-10.2449
▁argue	-10.245
▁targeted	-10.2458
▁reaction	-10.2474
!”	-10.2477
▁brother	-10.248
use	-10.2484
▁dat	-10.2485
▁pointed	-10.2485
▁consideration	-10.2486
long	-10.2511
▁Muslim	-10.2516
▁nu	-10.2518
▁values	-10.2521
▁>	-10.2529
ap	-10.2531
▁j	-10.2548
▁represents	-10.2551
bol	-10.2569
▁See	-10.2571
▁auto	-10.2572
▁als	-10.2577
▁investigations	-10.2584
app	-10.2585
▁custom	-10.2586
ise	-10.2591
▁listing	-10.2611
▁item	-10.2619
une	-10.2623
▁factor	-10.2638
zza	-10.2638
▁Fo	-10.2648
▁begins	-10.2654
&	-10.2656
▁trip	-10.2659
▁60	-10.2659
▁wonder	-10.2668
▁Gov	-10.2676
▁Ni	-10.2686
▁unit	-10.269
las	-10.2694
▁Ar	-10.2695
▁surprise	-10.2718
▁finish	-10.2723
▁Russians	-10.2726
▁deserve	-10.2727
▁admitted	-10.2733
▁mi	-10.2735
▁governo	-10.2747
▁patch	-10.2747
▁assess	-10.2748
ência	-10.2749
▁Crayak	-10.2749
▁Security	-10.2749
▁September	-10.2749
▁Sydney	-10.2749
▁Toffoli	-10.2749
▁advantage	-10.2749
▁crucial	-10.2749
▁Business	-10.2749
▁Llorona	-10.2749
▁dismiss	-10.2749
▁harassment	-10.2749
▁latter	-10.2749
▁Front	-10.2749
▁decisão	-10.2749
▁ownership	-10.2749
▁fellow	-10.2749
▁Deput	-10.2749
▁ruling	-10.2749
▁Library	-10.2749
▁dropped	-10.275
▁niet	-10.275
▁UCP	-10.275
▁Home	-10.2751
▁alternative	-10.2751
▁properties	-10.2751
▁Carlson	-10.2751
▁Open	-10.2751
▁API	-10.2752
▁progressive	-10.2752
▁Wall	-10.2752
▁shape	-10.2753
▁fundamental	-10.2753
▁genuine	-10.2755
▁indeed	-10.2755
▁Guardian	-10.2755
▁Will	-10.2755
▁appeal	-10.2756
▁yourself	-10.2756
▁nice	-10.2756
▁rare	-10.2757
▁crypto	-10.2757
▁pela	-10.2758
▁approved	-10.2758
▁Global	-10.2758
▁stall	-10.2759
▁framework	-10.2759
▁choose	-10.2762
▁diversity	-10.2763
ía	-10.2764
▁Il	-10.2764
▁invite	-10.2766
▁changing	-10.2766
ı	-10.2769
▁angry	-10.2771
▁gender	-10.2771
▁sharing	-10.2774
▁demands	-10.2781
▁fairly	-10.2786
pelo	-10.2786
ru	-10.2792
ors	-10.2798
▁components	-10.2798
▁hate	-10.2805
▁prepared	-10.2815
▁Williams	-10.2821
▁Di	-10.2825
▁closely	-10.2827
▁format	-10.2829
▁ends	-10.2833
▁explains	-10.2843
▁institutions	-10.2865
▁examples	-10.2881
▁Sam	-10.2885
▁qual	-10.2888
▁daughter	-10.289
▁276	-10.2892
▁window	-10.2893
▁representative	-10.2893
▁Gi	-10.2896
▁champion	-10.2896
▁Water	-10.2898
gli	-10.2901
▁condition	-10.2902
▁handle	-10.2906
own	-10.2908
▁35	-10.291
▁Mon	-10.2915
▁writer	-10.2915
▁relationships	-10.2917
▁sport	-10.2924
▁signal	-10.293
ure	-10.295
▁MOUs	-10.2966
▁listed	-10.2967
▁Men	-10.2968
▁turns	-10.2983
▁comp	-10.2983
▁talked	-10.2986
▁sin	-10.3005
▁returned	-10.302
▁som	-10.3021
▁17,	-10.3025
▁eyes	-10.3029
della	-10.3034
▁Dis	-10.3042
len	-10.3044
▁goals	-10.3052
▁prefer	-10.3053
political	-10.3064
board	-10.3072
о	-10.3074
how	-10.3074
▁path	-10.3075
▁uses	-10.3085
▁award	-10.3088
some	-10.309
▁broadcast	-10.3109
▁explore	-10.3109
ev	-10.311
▁conclusions	-10.3112
free	-10.3112
▁prime	-10.3115
▁prohibit	-10.3116
▁dur	-10.3121
ka	-10.3122
era	-10.3141
▁brains	-10.3141
To	-10.3145
▁command	-10.3146
amento	-10.3151
▁historical	-10.3154
▁$6	-10.3154
▁Juli	-10.3156
▁industrial	-10.3161
▁multi	-10.3163
chmidt	-10.3163
erhaps	-10.3164
▁Catholic	-10.3164
Hilaire	-10.3165
▁MythX	-10.3165
▁Sheriff	-10.3165
▁Three	-10.3165
▁Tucker	-10.3165
▁blockchain	-10.3165
▁facility	-10.3165
▁fantasy	-10.3165
▁glyphosate	-10.3165
▁phrase	-10.3165
▁DNC	-10.3165
▁zijn	-10.3165
▁MCAS	-10.3165
▁Miami	-10.3165
▁Anthem	-10.3166
▁pocket	-10.3166
▁database	-10.3166
▁beautiful	-10.3166
▁settlement	-10.3166
ー	-10.3166
▁leaving	-10.3166
▁Hinduism	-10.3167
▁caso	-10.3167
▁gross	-10.3168
▁blog	-10.3168
▁demonstrate	-10.3169
▁sight	-10.3169
▁Tax	-10.3169
▁Kim	-10.3171
▁sister	-10.3171
▁Skinner	-10.3171
▁Again	-10.3171
▁Joseph	-10.3172
ake	-10.3173
▁steal	-10.3177
▁oppos	-10.3177
▁не	-10.3179
▁$	-10.318
▁Great	-10.318
▁voor	-10.318
▁properly	-10.3182
▁Auto	-10.3183
zione	-10.3183
▁PM	-10.3183
▁Big	-10.3184
▁frame	-10.3185
▁declared	-10.3185
▁regional	-10.3187
▁assistance	-10.3192
▁opinions	-10.3192
▁debut	-10.3192
▁classes	-10.3193
▁acknowledged	-10.3196
▁Day	-10.3197
▁Australian	-10.3198
▁av	-10.3202
▁Bar	-10.3203
▁advanced	-10.3204
▁cent	-10.321
▁employ	-10.3212
▁driven	-10.3212
pa	-10.3221
▁older	-10.3221
▁blame	-10.3221
24	-10.3224
▁engineering	-10.3225
ps	-10.323
▁dei	-10.3253
▁res	-10.3255
▁contra	-10.3259
▁processing	-10.3259
▁extended	-10.3261
▁keeping	-10.327
▁beat	-10.3276
▁compet	-10.3285
▁promise	-10.3301
▁interviews	-10.3318
▁province	-10.3322
▁birth	-10.3326
▁disease	-10.3328
▁ticks	-10.3333
▁waiting	-10.3336
▁studio	-10.3337
▁machine	-10.3342
▁scope	-10.3343
▁none	-10.3343
▁miles	-10.3348
▁Bend	-10.3358
20	-10.336
▁method	-10.3369
▁websites	-10.3388
ER	-10.3391
▁sites	-10.3396
vis	-10.3399
▁youth	-10.3404
▁seats	-10.3414
ug	-10.3421
▁90	-10.3425
▁networks	-10.3447
van	-10.346
▁titles	-10.346
▁suffer	-10.3467
evin	-10.3468
“	-10.3479
▁honor	-10.3484
▁200	-10.3485
▁print	-10.3493
cus	-10.3494
ek	-10.3503
lying	-10.3512
▁hurt	-10.3523
▁switch	-10.3528
NA	-10.3535
ability	-10.3535
▁breach	-10.3536
▁bias	-10.3539
For	-10.3545
▁edit	-10.3565
▁cuts	-10.3569
ral	-10.3572
▁Bob	-10.3577
▁objects	-10.3578
▁recognize	-10.3583
.2	-10.3588
▁decline	-10.3596
▁fly	-10.3597
19	-10.36
▁Agency	-10.36
▁Church	-10.36
▁album	-10.36
▁arguing	-10.36
▁currency	-10.36
▁receiving	-10.36
▁sovereignty	-10.36
Qaeda	-10.36
▁Nusrat	-10.36
▁Tyler	-10.36
▁Wrestling	-10.36
▁plot	-10.36
▁presence	-10.36
▁housing	-10.36
▁scheme	-10.36
▁corner	-10.36
▁Eliza	-10.36
▁frustration	-10.36
▁immigration	-10.36
▁crew	-10.36
▁citizenship	-10.36
▁university	-10.3601
▁ideology	-10.3601
▁veteran	-10.3601
▁Inquisition	-10.3601
▁existence	-10.3601
▁Marvel	-10.3601
▁oversight	-10.3602
▁determination	-10.3602
unt	-10.3602
▁Jones	-10.3602
▁footage	-10.3602
▁Nalcor	-10.3602
▁Wikileaks	-10.3602
▁implementation	-10.3605
▁disagree	-10.3605
▁introduce	-10.3605
▁polls	-10.3606
▁Kentucky	-10.3607
▁microdosing	-10.3607
▁universe	-10.3607
▁Super	-10.3608
▁green	-10.3609
▁Through	-10.3611
▁supply	-10.3611
▁literally	-10.3611
▁risks	-10.3611
▁está	-10.3612
▁academic	-10.3612
mer	-10.3615
▁nel	-10.3615
▁finance	-10.3615
beth	-10.3616
▁boat	-10.3616
▁Alex	-10.3616
▁combined	-10.3617
▁Power	-10.3624
▁tear	-10.3629
▁dynamic	-10.3632
▁nest	-10.3648
▁swing	-10.3656
▁contest	-10.3657
▁warming	-10.367
▁ya	-10.3675
▁Land	-10.3675
▁Nor	-10.3681
▁sh	-10.3684
ping	-10.369
▁ranking	-10.3691
don	-10.37
▁apart	-10.37
▁conflicts	-10.37
▁ci	-10.3701
▁esta	-10.3713
▁Mi	-10.3724
▁Reapers	-10.3727
▁documented	-10.3729
countless	-10.373
▁communicate	-10.3731
erson	-10.3734
▁demanding	-10.3736
ica	-10.3736
▁token	-10.3737
▁contribute	-10.3739
ual	-10.3741
▁elements	-10.3751
▁Ad	-10.3756
ura	-10.3762
▁operate	-10.3763
▁Indian	-10.3772
▁loved	-10.3772
▁r	-10.3778
▁plate	-10.3778
▁offense	-10.3778
▁temperature	-10.3779
▁mess	-10.3779
▁Representative	-10.3787
ang	-10.3787
▁task	-10.3787
▁Gu	-10.3789
▁paint	-10.3794
▁master	-10.3799
▁producer	-10.38
field	-10.3801
fa	-10.3812
▁thinks	-10.3817
▁location	-10.3829
▁leagues	-10.3834
▁trees	-10.3837
▁platforms	-10.3846
ren	-10.3848
her	-10.385
par	-10.3852
▁alla	-10.3854
gr	-10.3875
CA	-10.3882
ong	-10.3892
▁offers	-10.3894
▁heads	-10.39
▁dev	-10.3905
▁emerge	-10.3906
▁rat	-10.3924
▁places	-10.3954
「	-10.3956
▁seat	-10.396
When	-10.3964
ight	-10.3964
▁feels	-10.3973
▁proceed	-10.3976
▁surround	-10.3981
▁cons	-10.3982
▁reject	-10.3987
ld	-10.4001
AA	-10.4009
▁Abou	-10.4013
▁Dem	-10.4031
▁apparent	-10.4031
▁achieve	-10.4033
▁governments	-10.4037
▁Every	-10.4038
▁ignore	-10.404
lectronic	-10.4046
▁condemn	-10.4052
▁Sign	-10.4052
▁Egypt	-10.4052
▁tests	-10.4054
▁revolution	-10.4054
▁Toronto	-10.4055
▁amazing	-10.4055
▁behaviour	-10.4055
▁council	-10.4055
▁esquerda	-10.4055
▁impressive	-10.4055
▁proletariat	-10.4055
▁widespread	-10.4055
▁neural	-10.4055
▁possibly	-10.4055
▁Additional	-10.4055
▁Boston	-10.4055
▁boost	-10.4055
▁Corey	-10.4055
▁compelling	-10.4055
▁Internet	-10.4055
▁radical	-10.4055
▁primarily	-10.4055
▁Program	-10.4055
▁foster	-10.4055
▁Board	-10.4055
▁Season	-10.4055
▁enormous	-10.4055
▁Charlie	-10.4055
ING	-10.4055
▁Music	-10.4055
▁commitment	-10.4056
▁legend	-10.4056
▁involvement	-10.4056
▁typeMap	-10.4056
▁opposite	-10.4056
▁fundamentalism	-10.4056
▁stress	-10.4057
▁hardware	-10.4057
▁chairman	-10.4057
▁unknown	-10.4057
▁Angeles	-10.4058
▁Je	-10.406
▁rational	-10.4061
▁Boy	-10.4063
▁mood	-10.4063
▁Libya	-10.4065
▁pair	-10.4067
▁Love	-10.4067
▁corrupt	-10.4067
▁blue	-10.407
▁praise	-10.4071
▁cutting	-10.4074
▁percentage	-10.4074
▁Moto	-10.4075
▁motion	-10.4075
▁2000	-10.4076
▁Wo	-10.4077
▁render	-10.4079
▁aggressive	-10.4083
▁Does	-10.4092
▁entre	-10.4094
▁spring	-10.4095
▁threatened	-10.4098
▁generated	-10.4099
▁eat	-10.4102
▁og	-10.4103
▁stronger	-10.4104
▁feed	-10.4107
▁Hi	-10.4108
▁Reuters	-10.4119
▁updated	-10.412
▁style	-10.4123
▁ga	-10.4127
▁originally	-10.413
▁Inde	-10.4131
Re	-10.4134
▁ni	-10.4145
▁med	-10.4156
▁Wan	-10.4157
▁lies	-10.4159
▁45	-10.4165
▁Bay	-10.4168
▁completed	-10.4172
▁chair	-10.4176
▁linked	-10.4176
▁fewer	-10.4179
elle	-10.4182
▁personally	-10.4185
▁va	-10.419
▁pack	-10.4193
▁sea	-10.4205
▁Shea	-10.4217
▁teachers	-10.4228
▁ste	-10.423
king	-10.423
▁Steph	-10.4236
▁mistake	-10.4245
gu	-10.4248
ator	-10.4253
sch	-10.4258
somewhat	-10.4258
▁Thank	-10.4259
▁initiative	-10.4259
▁disorder	-10.426
▁island	-10.426
▁client	-10.4261
▁politician	-10.4267
▁learning	-10.4267
▁resident	-10.4267
▁capture	-10.4273
instanceof	-10.428
han	-10.4281
▁Arts	-10.4283
▁Notes	-10.4305
▁premier	-10.4315
▁evening	-10.4328
▁messages	-10.4334
▁fa	-10.4335
▁etc	-10.4339
any	-10.4354
ign	-10.4361
ph	-10.4365
ui	-10.4372
▁ro	-10.4379
vin	-10.438
get	-10.439
▁discussions	-10.4395
▁symbol	-10.4403
lich	-10.4404
body	-10.4414
▁nei	-10.4419
▁arriv	-10.4436
▁IS	-10.4439
ace	-10.4442
bi	-10.4449
named	-10.4454
born	-10.4459
▁clinic	-10.4464
ily	-10.4466
▁26	-10.4469
tro	-10.4471
nn	-10.4485
▁Da	-10.4496
▁express	-10.4502
▁ein	-10.4503
▁ultimate	-10.4507
uto	-10.4508
▁confront	-10.4513
▁propose	-10.4517
5%	-10.452
▁Lithuania	-10.4521
car	-10.4521
-1	-10.4522
▁país	-10.4523
mon	-10.4527
▁Britain	-10.4531
▁Defense	-10.4531
▁Hustle	-10.4531
▁Zuckerberg	-10.4531
▁anxiety	-10.4531
▁combination	-10.4531
▁competitive	-10.4531
▁defensiv	-10.4531
▁indictment	-10.4531
▁vulnerable	-10.4531
▁Download	-10.4531
▁spokesperson	-10.4531
▁Alaska	-10.4531
▁split	-10.4531
▁fault	-10.4531
▁agenda	-10.4531
Torres	-10.4531
▁hoping	-10.4532
▁seemingly	-10.4532
▁Hindu	-10.4532
▁Factory	-10.4532
▁THE	-10.4533
▁Arizona	-10.4533
▁Guerrero	-10.4533
▁EPA	-10.4533
▁Eric	-10.4534
▁charity	-10.4535
▁philosophy	-10.4536
▁Old	-10.4536
▁export	-10.4538
▁Alvarez	-10.4538
▁century	-10.4538
▁mouth	-10.4538
▁yeah	-10.4538
▁Garcia	-10.4538
▁Week	-10.4539
▁assessment	-10.454
▁consist	-10.4541
▁correspond	-10.4541
▁distance	-10.4542
▁robot	-10.4543
▁reduction	-10.4544
fi	-10.4547
▁Climate	-10.4547
▁alive	-10.4547
▁hired	-10.4553
▁gay	-10.4555
▁exposed	-10.4556
▁chat	-10.4558
▁dedicat	-10.4559
▁ainda	-10.4563
▁choices	-10.4563
▁guns	-10.4563
▁Given	-10.4563
▁Jona	-10.4564
▁Deep	-10.4566
▁adjusted	-10.4567
▁missed	-10.457
▁engaged	-10.4574
▁wealthy	-10.4576
▁effectively	-10.4582
▁strange	-10.4588
▁rejected	-10.4594
▁);	-10.4598
ata	-10.4607
▁joke	-10.461
▁King	-10.4617
▁shortly	-10.4625
té	-10.4632
▁Mas	-10.4635
▁targets	-10.4646
-5	-10.4663
▁Oh	-10.4665
▁plants	-10.4666
een	-10.467
ible	-10.4673
17	-10.4673
▁adds	-10.4687
hen	-10.4688
▁payments	-10.4697
net	-10.4702
0,000	-10.4714
▁AR	-10.4718
▁import	-10.4748
▁waves	-10.4751
▁magazine	-10.4759
▁adult	-10.4762
▁aspect	-10.4762
▁skill	-10.4765
▁tree	-10.4765
▁MOU	-10.4765
SM	-10.4765
▁campaigns	-10.4766
▁diz	-10.477
▁fo	-10.4786
▁owners	-10.4789
▁driver	-10.4789
▁wall	-10.479
▁ride	-10.4794
▁Service	-10.4797
▁developer	-10.48
iv	-10.4804
▁ko	-10.4808
▁9,	-10.4812
ard	-10.4819
▁seconds	-10.482
ice	-10.4821
▁$5	-10.4822
▁provider	-10.4831
ient	-10.4832
▁maxim	-10.4844
As	-10.4846
mit	-10.4866
▁undermine	-10.4872
▁32	-10.4876
▁promot	-10.4881
▁ab	-10.4885
▁ranks	-10.489
▁actor	-10.4891
port	-10.4893
looking	-10.4908
▁Q	-10.491
hill	-10.4926
▁transfer	-10.4926
▁weigh	-10.4929
ware	-10.493
power	-10.4936
mento	-10.4938
number	-10.4944
▁80	-10.4952
▁tem	-10.4962
▁Base	-10.4962
▁grant	-10.4972
▁Ba	-10.4972
bre	-10.4974
▁bag	-10.4978
▁collect	-10.4982
▁tough	-10.4983
▁limits	-10.4993
▁guarantee	-10.4999
▁generate	-10.5
▁preserve	-10.5001
ff	-10.5007
ki	-10.501
▁unfair	-10.5013
80	-10.5017
▁kick	-10.5018
▁define	-10.5022
▁consistent	-10.5023
▁insist	-10.5024
▁except	-10.5029
▁random	-10.5029
▁Thai	-10.503
▁genetic	-10.5031
────────────────	-10.5031
───────────	-10.5031
▁9/11	-10.5031
▁Discovery	-10.5031
▁Juventus	-10.5031
▁Moraes	-10.5031
▁afraid	-10.5031
▁chicken	-10.5031
▁minimum	-10.5031
RADI	-10.5031
▁bipartisan	-10.5031
▁cooperation	-10.5031
▁credibility	-10.5031
▁utility	-10.5031
▁Pedro	-10.5031
ário	-10.5031
▁deputy	-10.5031
した	-10.5031
▁abril	-10.5031
▁comparison	-10.5031
し	-10.5031
▁Network	-10.5031
▁nicht	-10.5031
▁Among	-10.5031
▁athletes	-10.5031
▁Wild	-10.5031
▁Boeing	-10.5031
▁denied	-10.5031
▁DUNE	-10.5031
▁vegan	-10.5031
▁cancer	-10.5032
▁Ajax	-10.5032
▁Any	-10.5033
▁proud	-10.5033
▁disruption	-10.5033
▁nomination	-10.5033
▁rally	-10.5033
▁thus	-10.5033
▁advocacy	-10.5034
SP	-10.5034
▁reverse	-10.5034
▁finger	-10.5034
▁accuracy	-10.5036
▁stable	-10.5036
▁Development	-10.5036
ville	-10.5037
▁necessarily	-10.5038
▁radio	-10.5038
▁PMDD	-10.5038
▁contrast	-10.5038
▁Play	-10.5038
▁Stone	-10.5039
▁legislative	-10.5039
▁hyper	-10.5039
▁Marco	-10.5039
▁aside	-10.5042
▁criticized	-10.5042
▁knock	-10.5043
cent	-10.5044
▁Such	-10.5044
▁float	-10.5045
▁endangered	-10.5048
dy	-10.5048
▁Impact	-10.5049
▁models	-10.505
▁viewers	-10.505
▁girls	-10.5051
▁occurred	-10.5052
▁distinct	-10.5052
▁Law	-10.5054
▁earth	-10.5067
Ilhan	-10.5072
▁Supremo	-10.5077
▁recognized	-10.5078
▁regularly	-10.5079
▁vision	-10.508
▁missing	-10.5081
▁saved	-10.5088
emy	-10.5091
▁seriously	-10.5091
▁yes	-10.5092
▁processes	-10.5093
▁streaming	-10.5095
▁bare	-10.5096
▁socialist	-10.5098
▁alien	-10.51
▁functional	-10.5113
ould	-10.5115
All	-10.5116
iu	-10.5116
ane	-10.5127
▁wear	-10.5132
▁determined	-10.5135
cha	-10.5136
▁core	-10.5142
▁Jer	-10.5143
air	-10.5149
▁dans	-10.5156
▁Champions	-10.5164
▁Yes	-10.5168
▁divide	-10.5169
cc	-10.5178
▁$4	-10.5178
▁readers	-10.518
▁clubs	-10.519
ring	-10.5194
11	-10.5199
▁ship	-10.52
▁stayed	-10.5207
▁II	-10.5221
▁ties	-10.5232
▁bo	-10.5238
▁consumers	-10.525
▁blocking	-10.5259
▁pipelines	-10.5263
▁warm	-10.5264
On	-10.5268
▁sequence	-10.5277
▁engineer	-10.5277
▁contacts	-10.5279
lor	-10.528
▁revenue	-10.5281
▁rival	-10.5282
▁wage	-10.5284
▁pattern	-10.5284
▁chemical	-10.5284
▁failure	-10.5293
▁activist	-10.5294
▁markets	-10.53
10	-10.5305
▁IP	-10.531
▁politically	-10.5311
▁fund	-10.5313
bb	-10.532
val	-10.5321
▁End	-10.5321
▁34	-10.5327
▁Mc	-10.534
▁web	-10.535
ense	-10.5365
70	-10.5365
▁1,	-10.5366
De	-10.5367
▁facts	-10.5371
▁headed	-10.5375
ification	-10.5376
▁tens	-10.5383
even	-10.54
RC	-10.5408
▁Van	-10.5409
▁3.	-10.5412
▁lying	-10.5417
mail	-10.5422
leg	-10.5427
was	-10.543
▁Pete	-10.543
▁alle	-10.5431
witch	-10.544
13	-10.5447
tu	-10.5452
view	-10.5455
å	-10.546
}	-10.5463
point	-10.5463
class	-10.5465
ned	-10.5469
light	-10.5474
round	-10.5484
▁executives	-10.5488
▁recommend	-10.5494
▁connect	-10.5495
olo	-10.5497
AR	-10.5499
▁wound	-10.5501
▁cry	-10.5502
TC	-10.5502
▁wor	-10.551
▁trouble	-10.5525
▁license	-10.5526
▁commission	-10.553
▁exclusive	-10.5533
MA	-10.5533
▁immediate	-10.5534
▁structures	-10.5536
▁Grand	-10.5536
ue	-10.5539
▁Speak	-10.5545
▁transport	-10.5546
▁cool	-10.5548
▁moves	-10.5548
▁react	-10.5549
▁anger	-10.5549
▁Persona	-10.5551
▁Brasil	-10.5557
ò	-10.5557
ù	-10.5557
▁Cathedral	-10.5557
▁Kremlin	-10.5557
▁Liverpool	-10.5557
▁Massachusetts	-10.5557
▁Meacham	-10.5557
▁Mormon	-10.5557
▁Morning	-10.5557
▁Odebrecht	-10.5557
▁Tribunal	-10.5557
▁algorithm	-10.5557
▁ecosystem	-10.5557
▁fiscal	-10.5557
▁flexibility	-10.5557
▁galaxy	-10.5557
▁horror	-10.5557
▁ourselves	-10.5557
▁transparency	-10.5557
▁NBC	-10.5557
▁passenger	-10.5557
▁applied	-10.5557
▁coalition	-10.5557
▁Coast	-10.5557
▁Magic	-10.5557
▁significance	-10.5557
▁AfD	-10.5557
Triple	-10.5557
▁Valley	-10.5557
▁timing	-10.5557
▁Photograph	-10.5557
▁creation	-10.5557
▁Luke	-10.5557
▁Organization	-10.5557
▁integrity	-10.5557
▁translation	-10.5558
▁Foundation	-10.5558
▁NDP	-10.5558
▁entities	-10.5558
▁Pinterest	-10.5558
▁categories	-10.5558
年	-10.5558
KCO	-10.5558
▁awareness	-10.5559
▁2009	-10.556
▁2008	-10.556
▁concrete	-10.556
▁IMPACT	-10.556
▁expensive	-10.556
▁Current	-10.556
▁censorship	-10.556
▁Miller	-10.556
▁establishment	-10.5562
▁handful	-10.5562
▁cryptocurrency	-10.5562
▁selection	-10.5563
▁campus	-10.5563
▁suddenly	-10.5564
▁scientific	-10.5565
▁lowest	-10.5565
▁resistance	-10.5566
▁oppose	-10.5567
▁sur	-10.5572
▁gotten	-10.5573
▁unlikely	-10.5573
▁Iowa	-10.5575
▁mobile	-10.5575
▁producing	-10.5576
▁cable	-10.5577
▁volume	-10.5579
▁Booker	-10.5579
req	-10.558
▁ABC	-10.558
▁anyway	-10.5582
▁lift	-10.5583
▁Fire	-10.5584
af	-10.5584
▁faster	-10.5587
▁gear	-10.5588
▁laid	-10.5591
▁worker	-10.5592
▁investments	-10.5594
▁odd	-10.5595
▁Brexit	-10.5596
▁initially	-10.5601
▁editor	-10.5607
▁investigated	-10.5608
▁rail	-10.5609
▁native	-10.5613
▁critic	-10.5615
▁Israeli	-10.5622
▁finale	-10.5637
ath	-10.5637
▁procedures	-10.5638
▁surrounding	-10.5644
25	-10.5645
hand	-10.5648
She	-10.5649
▁flying	-10.5649
▁å	-10.5651
.3	-10.5656
rich	-10.5675
▁Members	-10.5683
iert	-10.5689
▁implemented	-10.5696
▁nations	-10.5699
▁Du	-10.57
bin	-10.5705
=	-10.5712
▁este	-10.5717
low	-10.5719
▁theories	-10.5723
▁compare	-10.5737
rn	-10.5751
も	-10.5753
▁fuels	-10.577
tel	-10.5772
▁tone	-10.5775
▁stars	-10.5779
ner	-10.5783
head	-10.5789
amo	-10.5792
▁posts	-10.5793
▁follows	-10.5802
▁meetings	-10.581
▁king	-10.5818
▁ent	-10.5821
▁Cas	-10.5828
▁appointment	-10.5837
▁Election	-10.5837
▁regulation	-10.5845
▁skills	-10.5847
▁Services	-10.5847
TV	-10.5848
▁actors	-10.5851
▁patient	-10.5853
à	-10.5853
stra	-10.5863
▁customer	-10.5866
▁lane	-10.587
ons	-10.588
▁Les	-10.5885
ence	-10.5893
ai	-10.5893
br	-10.5893
▁Note	-10.5894
▁sides	-10.5905
standing	-10.5916
▁poster	-10.5924
ito	-10.5924
eller	-10.5947
▁bills	-10.595
mark	-10.5959
nte	-10.5965
▁mar	-10.5971
mm	-10.5972
▁dall	-10.599
EM	-10.599
0%	-10.5993
istic	-10.6005
▁automatic	-10.6011
ill	-10.6012
league	-10.602
scale	-10.602
▁Mem	-10.6021
level	-10.6026
ano	-10.6028
▁click	-10.6037
▁roads	-10.604
Oh	-10.6042
cho	-10.6045
▁resign	-10.6046
▁ending	-10.6047
▁adopt	-10.6049
ya	-10.6051
▁Sri	-10.6053
gged	-10.6061
▁answers	-10.6062
▁ratio	-10.6076
▁Ju	-10.6084
▁exact	-10.6089
▁translate	-10.6091
▁Steve	-10.61
▁articles	-10.6101
▁advisers	-10.6107
▁accurate	-10.6108
wearing	-10.6109
▁censura	-10.6109
▁interact	-10.6109
▁Euro	-10.6111
▁valid	-10.6111
▁excess	-10.6111
な	-10.6112
▁dro	-10.6112
cific	-10.6112
▁1998	-10.6113
▁Africa	-10.6113
▁Evertsen	-10.6113
▁Holyoake	-10.6113
▁Imperial	-10.6113
▁Kushner	-10.6113
▁Orlando	-10.6113
▁Ottawa	-10.6113
▁Patrick	-10.6113
▁Phoenix	-10.6113
▁Vedras	-10.6113
▁controversial	-10.6113
▁facilities	-10.6113
▁ilaç	-10.6113
▁insurance	-10.6113
▁legacy	-10.6113
▁liberdade	-10.6113
▁manifest	-10.6113
▁tournament	-10.6113
boolean	-10.6113
▁Mitchell	-10.6113
▁bodies	-10.6113
▁robust	-10.6113
▁Further	-10.6113
▁ocean	-10.6113
▁utiliz	-10.6113
▁Japanese	-10.6113
▁Bendell	-10.6113
▁Wales	-10.6113
▁creative	-10.6113
▁ethical	-10.6113
▁variet	-10.6113
▁reportagem	-10.6113
▁Carolina	-10.6113
▁strict	-10.6113
▁Earlier	-10.6113
▁interface	-10.6113
▁basketball	-10.6113
▁repair	-10.6113
▁hermana	-10.6113
▁bullying	-10.6113
▁stuck	-10.6113
▁marriage	-10.6113
▁surveillance	-10.6113
▁Daniel	-10.6113
▁River	-10.6113
▁eastern	-10.6113
▁northern	-10.6114
▁dinner	-10.6114
▁ticket	-10.6114
▁combat	-10.6114
▁på	-10.6115
▁Bush	-10.6115
▁Census	-10.6115
▁celebrate	-10.6116
▁Company	-10.6116
▁fought	-10.6116
▁Biden	-10.6116
▁Border	-10.6116
▁anonymous	-10.6117
▁tuna	-10.6117
▁worldwide	-10.6117
▁injuries	-10.6117
▁equality	-10.612
▁custody	-10.6121
▁Jerry	-10.6122
▁squad	-10.6122
▁Army	-10.6123
▁stolen	-10.6123
▁crack	-10.6126
▁serving	-10.6127
▁moderate	-10.6127
▁Long	-10.613
olition	-10.6131
▁constantly	-10.6131
▁morph	-10.6132
▁followers	-10.6132
▁rock	-10.6133
más	-10.6134
▁blind	-10.6136
▁Page	-10.6137
▁disse	-10.6138
▁Young	-10.6138
ió	-10.614
▁comply	-10.6144
▁Jay	-10.6144
▁portion	-10.6146
▁drawn	-10.6146
▁electronic	-10.6147
▁weak	-10.6147
▁String	-10.6151
▁deeper	-10.6151
▁emissions	-10.6152
▁musical	-10.6156
▁Tech	-10.6156
▁bio	-10.616
▁DA	-10.6162
か	-10.6165
tail	-10.6165
▁sold	-10.6166
▁loading	-10.6171
▁recalled	-10.6174
▁pure	-10.6175
▁uit	-10.6177
▁younger	-10.6179
▁flower	-10.6183
▁expectations	-10.6183
▁forget	-10.619
▁defined	-10.6194
▁Thrones	-10.6199
▁sounds	-10.62
▁graduate	-10.6202
▁vor	-10.6202
gra	-10.6203
tat	-10.6204
hanno	-10.6216
ende	-10.6217
▁healthy	-10.6219
2,	-10.622
▁soft	-10.6227
▁oversee	-10.6228
▁pilots	-10.623
▁interactions	-10.6231
▁proved	-10.6235
▁donate	-10.6235
▁prey	-10.6237
▁techniques	-10.6246
▁une	-10.6262
▁functions	-10.6263
▁truck	-10.6273
▁titled	-10.6273
▁joint	-10.6278
▁prompt	-10.628
▁reveal	-10.6294
▁$3	-10.63
▁positions	-10.6301
uck	-10.6303
▁dia	-10.6304
▁creatures	-10.6312
▁forms	-10.6315
▁Art	-10.6325
▁recorded	-10.634
stern	-10.6351
nnie	-10.6357
▁advocates	-10.6362
tte	-10.6362
TRE	-10.6367
1,	-10.6368
▁tons	-10.6373
▁releases	-10.6373
▁pu	-10.6375
▁leads	-10.638
▁+	-10.6384
▁regulations	-10.6388
:30	-10.6388
▁critics	-10.6394
tries	-10.6395
ea	-10.6404
▁funds	-10.6407
▁forum	-10.6408
▁Salt	-10.6409
▁Mac	-10.642
▁collection	-10.6424
▁remaining	-10.6425
▁amounts	-10.6426
▁warrant	-10.6428
▁error	-10.6431
▁providers	-10.6431
▁protein	-10.6432
▁stream	-10.6436
▁wave	-10.6438
los	-10.644
rro	-10.6441
kt	-10.6444
▁pipeline	-10.6448
[	-10.645
▁stock	-10.6451
▁defender	-10.6451
▁Ta	-10.6452
▁advance	-10.6454
▁Mu	-10.6457
18	-10.646
▁stepp	-10.646
▁inter	-10.6463
ump	-10.6463
▁2016.	-10.6481
▁regulator	-10.6485
▁restrict	-10.6489
▁Tra	-10.6495
▁movies	-10.6499
▁Qu	-10.6501
▁GE	-10.6508
▁dog	-10.6508
▁researcher	-10.6523
▁37	-10.6524
nel	-10.6524
▁victims	-10.6531
▁adapt	-10.6543
▁programs	-10.6546
▁Ku	-10.6549
12	-10.6553
▁Road	-10.6558
cause	-10.6569
▁topic	-10.6574
▁min	-10.6574
▁interfere	-10.6575
▁instances	-10.6589
▁featur	-10.659
▁Bitcoin	-10.6597
▁devices	-10.6597
▁files	-10.6599
wide	-10.6599
▁estimates	-10.6606
LGBT	-10.6608
People	-10.6608
attack	-10.6608
With	-10.6608
▁monitor	-10.6621
▁Ch	-10.6626
▁disappear	-10.6639
▁bus	-10.6646
▁shop	-10.6651
▁spin	-10.6653
▁Whe	-10.6659
▁reviews	-10.6664
▁dispute	-10.6669
zo	-10.6671
▁frequent	-10.6677
án	-10.6679
▁Der	-10.6679
RA	-10.6684
▁belong	-10.6684
▁proper	-10.6692
met	-10.6697
▁alarm	-10.6698
▁Labo	-10.6699
aptain	-10.67
▁assign	-10.67
▁Control	-10.67
azzetti	-10.6701
▁Gillum	-10.6701
▁McConnell	-10.6701
▁NHL	-10.6701
▁Seattle	-10.6701
▁autopilot	-10.6701
▁cloud	-10.6701
▁improving	-10.6701
▁opportunities	-10.6701
▁portfolio	-10.6701
▁storage	-10.6701
▁também	-10.6701
▁villain	-10.6701
▁GuardedType	-10.6701
▁Halper	-10.6701
▁Middle	-10.6701
▁injured	-10.6701
▁statistics	-10.6701
Thomas	-10.6701
▁Conservative	-10.6701
▁Ocean	-10.6701
▁headquarters	-10.6701
▁BBC	-10.6701
▁athletic	-10.6701
▁stood	-10.6701
▁tactics	-10.6701
▁Russisch	-10.6701
▁invitation	-10.6701
▁CIA	-10.6701
▁Jesus	-10.6701
▁Oscar	-10.6701
▁subscription	-10.6701
▁psychedelic	-10.6701
▁Vincen	-10.6701
作	-10.6701
▁fraud	-10.6701
▁Jordan	-10.6701
▁legislature	-10.6701
▁wanna	-10.6701
▁hidden	-10.6701
▁inclusive	-10.6701
▁chapter	-10.6701
▁Which	-10.6701
▁fait	-10.6701
▁therapy	-10.6701
▁duties	-10.6702
▁expansion	-10.6702
ux	-10.6702
▁importance	-10.6702
▁Carter	-10.6702
▁revista	-10.6702
▁trading	-10.6702
▁bail	-10.6702
▁cease	-10.6703
▁Sarah	-10.6703
▁employment	-10.6703
▁everywhere	-10.6703
▁Am	-10.6703
▁unclear	-10.6704
▁Giuliani	-10.6704
▁Society	-10.6704
▁unnecessary	-10.6704
▁xPeke	-10.6704
▁viral	-10.6704
gging	-10.6705
▁memory	-10.6705
▁animation	-10.6706
▁manner	-10.6706
▁advisor	-10.6706
▁Far	-10.6706
▁ozone	-10.6706
▁fundraisers	-10.6707
▁apresenta	-10.6707
▁Side	-10.6708
▁Donaldson	-10.6708
▁epic	-10.6708
▁precisely	-10.6709
▁somewhere	-10.6709
▁labor	-10.6709
▁assert	-10.6709
▁universal	-10.671
▁unfortunately	-10.671
▁rose	-10.671
▁weird	-10.6711
▁Finally	-10.6713
▁explicitly	-10.6715
▁objection	-10.6715
▁violate	-10.6715
▁Buffalo	-10.6715
▁appointed	-10.6715
▁efficient	-10.6716
▁sufficient	-10.6716
▁somehow	-10.6716
▁visible	-10.6716
did	-10.6716
▁meaningful	-10.6717
▁winner	-10.6717
▁Kless	-10.6718
▁differ	-10.6718
▁terrorist	-10.6719
▁Line	-10.672
▁Amy	-10.672
▁Lyra	-10.6723
▁fucking	-10.6726
▁fourth	-10.6727
▁hide	-10.6727
▁propri	-10.6727
▁Abramson	-10.6728
▁Was	-10.673
▁factory	-10.6732
▁lap	-10.6732
▁Type	-10.6733
▁Aven	-10.6735
.’”	-10.6741
▁33	-10.6741
▁Roy	-10.6745
▁Starr	-10.6746
▁spark	-10.6746
▁wrapp	-10.6747
▁surprised	-10.6747
▁Planet	-10.6747
ere	-10.6749
ero	-10.6753
▁OF	-10.6757
▁foundation	-10.6758
▁rotation	-10.6763
▁stands	-10.6764
▁mas	-10.6771
▁bound	-10.6773
▁Take	-10.6775
▁metal	-10.6775
▁emotions	-10.6776
▁Matt	-10.678
endo	-10.6792
▁bundlers	-10.6793
▁significantly	-10.6793
▁hearings	-10.6793
real	-10.6796
▁deem	-10.6796
▁improved	-10.6798
▁Ly	-10.6808
▁traits	-10.6809
▁escape	-10.6813
grown	-10.6823
▁Sports	-10.6826
▁publishers	-10.6827
▁ano	-10.6842
▁clips	-10.6842
▁threaten	-10.6846
AL	-10.6848
▁»	-10.6849
▁Roads	-10.6849
ade	-10.6861
they	-10.6868
▁spy	-10.6869
Stop	-10.6869
▁majors	-10.6873
▁restrictions	-10.6876
▁estimat	-10.6877
evolutionary	-10.688
и	-10.6887
ında	-10.6888
▁classic	-10.689
▁instruments	-10.6893
▁vice	-10.6893
3%	-10.6901
▁Sun	-10.6903
▁edge	-10.6908
33	-10.6917
screen	-10.6927
nberg	-10.6929
▁advocate	-10.6929
▁trans	-10.6938
▁qu	-10.6938
▁involves	-10.694
ball	-10.6948
▁cap	-10.6954
▁entering	-10.6955
ono	-10.696
ados	-10.6965
▁sun	-10.6967
very	-10.6971
inspired	-10.6972
▁organ	-10.6975
▁400	-10.6979
▁reveals	-10.6981
▁protected	-10.6986
▁Journal	-10.6989
▁park	-10.6991
▁Are	-10.7004
▁occur	-10.7009
▁existed	-10.7024
My	-10.7038
▁har	-10.7043
▁quarterback	-10.7046
▁Science	-10.7052
▁trick	-10.7052
▁transaction	-10.7061
▁Representatives	-10.7062
▁weapon	-10.7062
▁prop	-10.7064
▁hero	-10.7064
▁organiz	-10.7064
▁seg	-10.7066
eur	-10.7068
dor	-10.7072
!"	-10.7075
▁methods	-10.7076
▁53	-10.7076
GB	-10.7081
new	-10.7089
64	-10.7089
▁receiver	-10.709
▁champions	-10.7096
▁consumer	-10.7099
▁programme	-10.7102
▁contribut	-10.7113
▁brothers	-10.7113
▁argues	-10.7114
tive	-10.7128
ij	-10.7132
ange	-10.7133
▁Pr	-10.7135
ン	-10.7136
▁asset	-10.714
▁communicat	-10.7144
▁houses	-10.7145
▁prospects	-10.7147
▁sees	-10.7149
▁Ve	-10.7163
▁evolution	-10.7169
▁Rock	-10.7173
gers	-10.718
icon	-10.7185
▁responses	-10.7203
▁listen	-10.7212
▁Civil	-10.7225
▁questioned	-10.7231
style	-10.7232
profile	-10.7232
will	-10.7233
FBI	-10.7234
▁laugh	-10.725
nk	-10.7256
▁situations	-10.7264
▁recall	-10.727
▁kinds	-10.7279
ude	-10.7279
▁Apr	-10.7283
▁survive	-10.7294
▁disclose	-10.7294
does	-10.7297
▁subsequent	-10.73
▁extensive	-10.7301
▁essential	-10.7303
Well	-10.7306
▁owner	-10.7307
▁transform	-10.7307
▁Games	-10.731
▁possess	-10.731
▁eliminate	-10.7312
▁retail	-10.7314
▁bright	-10.7316
▁equal	-10.7317
▁fe	-10.7318
▁Li	-10.7323
inancial	-10.7325
▁Environment	-10.7326
BuzzFeed	-10.7326
unprecedented	-10.7326
▁Afghanistan	-10.7326
▁Bridge	-10.7326
▁Dempsey	-10.7326
▁Gonzalez	-10.7326
▁Government	-10.7326
▁Lewis	-10.7326
▁Maduro	-10.7326
▁Netflix	-10.7326
▁Poroshenko	-10.7326
▁Prague	-10.7326
▁Quentin	-10.7326
▁Salzman	-10.7326
▁Thompson	-10.7326
▁affidavit	-10.7326
▁bacteria	-10.7326
▁coordination	-10.7326
▁entertainment	-10.7326
▁meddling	-10.7326
▁nominee	-10.7326
▁olarak	-10.7326
▁poverty	-10.7326
▁promising	-10.7326
▁struggling	-10.7326
▁understood	-10.7326
▁physics	-10.7326
▁plain	-10.7326
▁rebuild	-10.7326
▁Foreign	-10.7326
▁Legends	-10.7326
▁comprehensive	-10.7326
▁pessoa	-10.7326
▁Columbia	-10.7326
▁cartoon	-10.7326
▁sharp	-10.7326
▁había	-10.7326
▁feedback	-10.7326
▁Triton	-10.7326
▁thread	-10.7327
▁assistant	-10.7327
▁sustain	-10.7327
▁pedido	-10.7327
▁já	-10.7327
▁slid	-10.7327
▁landmark	-10.7328
▁Women	-10.7328
▁debt	-10.7328
▁echo	-10.7328
▁Singer	-10.7328
▁classified	-10.7328
▁dying	-10.7328
▁recusal	-10.7329
▁melt	-10.7329
▁Jack	-10.7329
▁Pompeo	-10.7329
▁adoption	-10.7329
▁disgrace	-10.7329
▁propaganda	-10.7329
▁prosecution	-10.7329
▁Jim	-10.733
▁rising	-10.733
▁ancien	-10.733
▁Shop	-10.7331
▁placebo	-10.7331
▁nearby	-10.7331
ún	-10.7331
▁label	-10.7332
▁regardless	-10.7332
▁Miss	-10.7333
▁2001	-10.7333
▁desperate	-10.7334
▁bone	-10.7334
▁racist	-10.7335
▁Manchester	-10.7335
▁Rick	-10.7336
▁boot	-10.7336
▁minds	-10.7337
▁deleted	-10.7337
▁ideal	-10.7337
bar	-10.7338
▁sick	-10.7339
▁Later	-10.7339
▁subscribe	-10.734
▁Speaker	-10.7341
▁administrativ	-10.7343
▁personality	-10.7344
ino	-10.7345
▁Cuban	-10.7346
▁Gar	-10.7346
▁flat	-10.7349
▁humanity	-10.7349
▁Sean	-10.7349
▁possession	-10.735
▁Syrian	-10.7352
▁teen	-10.7354
media	-10.7355
▁auditing	-10.7356
▁Mic	-10.7356
▁continuing	-10.7356
▁peaceful	-10.7357
isation	-10.736
▁coup	-10.7361
▁toilet	-10.7362
▁referral	-10.7366
▁ju	-10.737
▁Where	-10.737
▁tackle	-10.7373
▁Inside	-10.7374
Tony	-10.7375
▁Iran	-10.7378
▁resolve	-10.738
pro	-10.7384
tig	-10.7393
▁successfully	-10.7395
05	-10.7399
arineschepen	-10.7402
▁vow	-10.7406
▁ruled	-10.7418
▁acquire	-10.742
dade	-10.7422
▁Lee	-10.7427
▁TO	-10.7429
▁mainly	-10.7432
esy	-10.744
▁deny	-10.7446
hairwoman	-10.7446
▁Vis	-10.7451
▁Deal	-10.7454
▁harder	-10.7456
▁Petros	-10.746
swoman	-10.7461
▁hacking	-10.7463
▁const	-10.7467
▁attribute	-10.747
▁upset	-10.7475
м	-10.7482
▁codes	-10.7485
ants	-10.749
▁ven	-10.7495
▁falls	-10.7496
▁contemporar	-10.7497
rap	-10.7502
▁dance	-10.7503
▁marked	-10.7512
MS	-10.7517
▁habe	-10.7518
▁remov	-10.752
threatening	-10.7521
▁agent	-10.7524
5,000	-10.7529
▁umpires	-10.753
pping	-10.7537
▁Win	-10.7539
▁au	-10.7558
ins	-10.7558
adas	-10.7562
citing	-10.7564
▁Tim	-10.7572
rmed	-10.7577
▁Dia	-10.758
eal	-10.7581
▁Sea	-10.7584
▁Sha	-10.7593
▁fue	-10.7603
fo	-10.7606
▁slight	-10.7608
▁ke	-10.7609
nder	-10.761
dge	-10.7619
table	-10.7619
▁topics	-10.7622
unable	-10.7636
▁nose	-10.7637
▁reads	-10.7639
▁Bank	-10.7642
foot	-10.7648
й	-10.7653
▁Roberts	-10.7663
▁decrease	-10.7668
place	-10.7668
▁Live	-10.767
person	-10.7674
▁adults	-10.7675
▁engineers	-10.7675
rd	-10.768
▁sei	-10.7689
GET	-10.7696
ept	-10.7698
slightly	-10.7705
▁magic	-10.7706
▁hostil	-10.7708
▁smartphone	-10.7712
р	-10.7714
vil	-10.7719
▁recommendation	-10.7723
▁Car	-10.7723
▁insight	-10.7724
▁expert	-10.7727
▁machines	-10.7729
▁sp	-10.773
▁promises	-10.7731
▁tick	-10.7732
▁requirement	-10.7735
gram	-10.7742
99	-10.7745
tell	-10.7745
▁2,	-10.7746
▁citizen	-10.7749
imento	-10.7751
▁brings	-10.7756
▁prov	-10.7757
▁63	-10.7765
▁considerations	-10.7766
Fo	-10.7771
▁publication	-10.7773
ute	-10.7795
inter	-10.7801
book	-10.7811
▁Nazis	-10.7824
NT	-10.7824
▁Time	-10.7828
rie	-10.7829
▁determin	-10.783
são	-10.7835
▁controll	-10.7839
ois	-10.7842
▁Gen	-10.7847
▁tr	-10.7854
▁banks	-10.7863
▁fin	-10.7879
ks	-10.788
▁earning	-10.7888
▁attract	-10.7888
graphic	-10.7894
▁SV	-10.7895
▁38	-10.7896
Reuters	-10.7898
cut	-10.7898
Dame	-10.79
school	-10.79
town	-10.7905
presidente	-10.7908
▁visual	-10.791
▁500	-10.791
//	-10.7911
fast	-10.7913
weight	-10.7918
▁logic	-10.7923
▁partners	-10.7926
▁carries	-10.7929
▁8,	-10.793
▁repeat	-10.7934
▁matters	-10.7935
▁journal	-10.7937
▁Ka	-10.7937
▁Us	-10.7939
door	-10.7943
ress	-10.7948
▁Jan	-10.7953
▁intend	-10.7954
▁desire	-10.7959
▁urban	-10.796
▁participate	-10.7962
▁rep	-10.7963
▁marine	-10.7964
▁govern	-10.7965
▁sw	-10.7966
▁permanent	-10.7967
sley	-10.7969
▁Frank	-10.7969
▁hire	-10.7975
▁careful	-10.7977
▁practical	-10.7979
▁craft	-10.798
60	-10.798
▁organis	-10.798
▁protocol	-10.7986
mas	-10.7987
▁impeach	-10.7988
isenberg	-10.7989
▁disrupt	-10.799
▁hell	-10.7991
▁enhance	-10.7991
▁arrange	-10.7991
た	-10.7992
ões	-10.7992
▁dramatic	-10.7992
▁Catalyst	-10.7993
▁Dearlove	-10.7993
▁Football	-10.7993
▁Hampton	-10.7993
▁Hollywood	-10.7993
▁Hospital	-10.7993
▁Llorente	-10.7993
▁Registry	-10.7993
▁SWAT	-10.7993
▁Sample	-10.7993
▁Shapiro	-10.7993
▁Snipes	-10.7993
▁absurd	-10.7993
▁approval	-10.7993
▁cinsel	-10.7993
▁destruction	-10.7993
▁grocery	-10.7993
▁mysterious	-10.7993
▁pollution	-10.7993
▁reputation	-10.7993
▁skeptical	-10.7993
▁suicide	-10.7993
▁Aitana	-10.7993
▁Bolton	-10.7993
▁Bureau	-10.7993
▁FvD	-10.7993
▁Hepburn	-10.7993
▁Muskrat	-10.7993
▁NASA	-10.7993
▁Shyamalan	-10.7993
▁Zelensky	-10.7993
▁association	-10.7993
▁Draft	-10.7993
▁Boots	-10.7993
▁devastating	-10.7993
▁Think	-10.7993
▁Carroll	-10.7993
▁boast	-10.7993
▁asthma	-10.7993
▁convert	-10.7993
▁trillion	-10.7993
▁Benioff	-10.7993
▁eager	-10.7993
▁Plus	-10.7993
▁Club	-10.7993
▁dé	-10.7993
▁plent	-10.7993
▁Bicycl	-10.7993
▁perception	-10.7993
▁introduction	-10.7993
▁roster	-10.7993
▁Maryland	-10.7993
▁household	-10.7993
ível	-10.7994
▁Review	-10.7994
▁tiny	-10.7994
▁legitimate	-10.7994
▁Iranian	-10.7994
▁depression	-10.7994
▁Tel	-10.7994
▁wake	-10.7994
▁situa	-10.7994
▁yards	-10.7994
▁día	-10.7994
▁package	-10.7995
▁recount	-10.7995
て	-10.7995
▁NSA	-10.7995
▁Notley	-10.7996
david	-10.7996
▁transportation	-10.7996
▁COSEWIC	-10.7996
▁waar	-10.7996
▁DNA	-10.7997
▁Market	-10.7997
▁hotel	-10.7997
▁Brain	-10.7997
▁Johnson	-10.7998
▁bought	-10.7998
humanitarian	-10.7998
▁bidder	-10.7999
▁Peru	-10.7999
▁Louis	-10.8
▁mechanical	-10.8001
▁objective	-10.8001
ians	-10.8001
▁Joel	-10.8002
▁boss	-10.8003
▁ATSDR	-10.8003
▁primitive	-10.8003
▁nowhere	-10.8003
▁sorry	-10.8004
▁moon	-10.8004
▁index	-10.8004
▁helpful	-10.8004
▁differences	-10.8006
▁lucky	-10.8007
▁attached	-10.8007
▁relay	-10.8007
▁valuable	-10.8009
▁hosts	-10.8009
▁Sometimes	-10.8009
72	-10.801
▁Zee	-10.8011
bor	-10.8012
▁copy	-10.8012
▁Team	-10.8013
▁racing	-10.8013
▁Life	-10.8015
▁CBS	-10.8016
▁gold	-10.8017
▁equally	-10.8018
▁carefully	-10.8019
▁Korean	-10.802
▁Carlo	-10.802
▁Venezuelan	-10.8022
▁passes	-10.8022
ide	-10.8022
▁stations	-10.8026
▁Brad	-10.8027
▁dominated	-10.8027
▁30%	-10.8033
▁É	-10.8042
▁Unfortunately	-10.8042
▁Sil	-10.8044
▁timeline	-10.8046
▁cur	-10.8049
▁Jess	-10.8049
ec	-10.805
▁Bam	-10.8051
▁Body	-10.8052
▁Cha	-10.8052
▁burning	-10.8053
▁USA	-10.8054
▁noticed	-10.8054
▁mom	-10.8057
▁twins	-10.806
▁pier	-10.8063
▁operational	-10.8064
bat	-10.8067
▁lecture	-10.8071
▁illegally	-10.8071
ries	-10.8072
▁tri	-10.8073
▁wood	-10.8075
▁pig	-10.808
sol	-10.8083
▁purchases	-10.8093
▁Mann	-10.8094
▁PC	-10.8095
▁investors	-10.8098
oder	-10.8102
▁Need	-10.8105
▁prisoners	-10.8105
▁infer	-10.8106
ential	-10.8108
▁printing	-10.811
▁rang	-10.8113
▁Julia	-10.8117
▁coal	-10.8118
EU	-10.8121
▁privilege	-10.8123
▁coin	-10.8128
und	-10.813
▁sharks	-10.8136
mb	-10.8138
bbed	-10.8139
▁Lui	-10.814
▁Ray	-10.8145
▁blow	-10.8148
▁banking	-10.8151
tanto	-10.8152
GO	-10.8159
LE	-10.8161
$	-10.8161
▁bi	-10.8165
earned	-10.8166
”—	-10.817
▁Best	-10.8173
quer	-10.818
eft	-10.8181
▁impression	-10.8185
well	-10.8188
news	-10.8192
cur	-10.8193
▁borders	-10.8195
isk	-10.8199
▁appreciate	-10.8204
▁Works	-10.8211
iva	-10.8214
);	-10.8221
state	-10.8223
▁sad	-10.8225
▁contacted	-10.8228
sty	-10.8235
rch	-10.8236
▁lived	-10.8236
1,000	-10.8244
nı	-10.8245
▁bombs	-10.8253
▁Incom	-10.8253
▁Ko	-10.8256
gan	-10.8262
▁sincere	-10.8294
tric	-10.8298
▁70	-10.8306
▁errors	-10.8308
▁bomb	-10.8316
ara	-10.8331
▁Hey	-10.8334
characterization	-10.8354
TO	-10.8363
59	-10.8369
▁waste	-10.8384
▁pot	-10.8384
▁stra	-10.8387
▁drivers	-10.8387
▁chi	-10.8387
pass	-10.839
kin	-10.839
97	-10.8397
fully	-10.8409
▁leak	-10.8418
aram	-10.8418
▁tokens	-10.842
▁route	-10.8429
top	-10.8436
▁sensor	-10.8437
▁Waters	-10.8446
▁contribution	-10.8446
▁writers	-10.8447
▁arrive	-10.8447
▁teacher	-10.8452
▁hu	-10.8458
▁intern	-10.8459
nis	-10.8463
eel	-10.8473
▁trends	-10.8482
▁involve	-10.8484
3/	-10.8489
loo	-10.8492
▁ru	-10.8495
had	-10.8495
ST	-10.8497
у	-10.8511
leaning	-10.8527
ico	-10.854
pl	-10.8542
▁organic	-10.8543
▁parte	-10.8548
▁0.2	-10.8552
elect	-10.8558
ista	-10.8562
▁46	-10.8567
▁caus	-10.8571
▁informe	-10.8571
▁secur	-10.8577
ging	-10.8586
▁tradition	-10.8591
yan	-10.8592
lit	-10.8592
zone	-10.8598
▁load	-10.8604
rry	-10.8604
llo	-10.8608
action	-10.8608
üm	-10.8609
▁Jo	-10.8611
world	-10.8615
track	-10.8616
How	-10.8616
plus	-10.8617
▁exception	-10.8618
▁detain	-10.862
supported	-10.862
▁contracts	-10.8624
ran	-10.8628
lic	-10.8631
▁checks	-10.864
▁pictures	-10.8645
▁Mode	-10.8647
aught	-10.8648
▁assist	-10.865
rik	-10.8651
▁Kyle	-10.8653
▁etki	-10.8654
LC	-10.8655
▁Phil	-10.8655
▁tip	-10.8657
fall	-10.8659
▁300	-10.8665
▁knowing	-10.8667
▁assume	-10.8675
saw	-10.8676
▁absolute	-10.8683
▁constant	-10.8684
▁collective	-10.8685
▁supplie	-10.8687
▁pin	-10.8693
▁posting	-10.8693
Ze	-10.8694
▁terror	-10.8701
▁Brand	-10.8703
▁Republic	-10.8703
▁accommodat	-10.8704
▁eToro	-10.8705
ть	-10.8707
`	-10.8707
▁Japan	-10.8707
▁Ankaragucu	-10.8707
▁Devgn	-10.8707
▁Atlanta	-10.8707
▁Bolsonaro	-10.8707
▁Ecuador	-10.8707
▁Ethereum	-10.8707
▁Firefox	-10.8707
▁Houston	-10.8707
▁Illinois	-10.8707
▁Minnesota	-10.8707
▁NCAA	-10.8707
▁Nintendo	-10.8707
▁Shuga	-10.8707
▁Similarly	-10.8707
▁Taliban	-10.8707
▁Terhune	-10.8707
▁Tobias	-10.8707
▁Touki	-10.8707
▁challenging	-10.8707
▁complicated	-10.8707
▁damaging	-10.8707
▁enemies	-10.8707
▁grind	-10.8707
▁technologies	-10.8707
▁trigger	-10.8707
▁twenty	-10.8707
Authorities	-10.8707
▁CFL	-10.8707
▁Jaime	-10.8707
▁QAnon	-10.8707
▁empty	-10.8707
▁thorough	-10.8707
▁Soviet	-10.8707
▁russo	-10.8707
▁hebben	-10.8707
▁squid	-10.8707
▁storytelling	-10.8707
▁sympathetic	-10.8707
▁Organ	-10.8707
▁Executive	-10.8707
▁kitchen	-10.8707
▁Appeal	-10.8707
▁inevitable	-10.8707
▁horrible	-10.8707
▁Alexander	-10.8707
▁Critic	-10.8707
▁exposure	-10.8707
▁neighborhood	-10.8707
▁psychological	-10.8707
▁criticizing	-10.8707
▁drought	-10.8707
▁equipment	-10.8707
▁gaming	-10.8707
▁motivation	-10.8707
▁motivated	-10.8707
▁hiring	-10.8707
▁yesterday	-10.8707
▁portray	-10.8707
▁firefighters	-10.8707
▁Metro	-10.8707
▁tongue	-10.8707
▁Davis	-10.8707
▁Hafter	-10.8708
▁matéria	-10.8708
』	-10.8708
▁Return	-10.8708
▁championship	-10.8708
▁describing	-10.8708
▁Ohio	-10.8708
▁chart	-10.8708
▁weather	-10.8708
▁Spain	-10.8708
▁cabinet	-10.8708
▁damn	-10.8708
▁elsewhere	-10.8708
き	-10.8708
▁census	-10.8708
▁pool	-10.8708
▁dramatically	-10.8708
り	-10.8708
▁Thailand	-10.8708
▁Rules	-10.8708
şme	-10.8708
▁preparation	-10.8708
▁remarkable	-10.8709
▁echt	-10.8709
▁breakdown	-10.8709
ssuming	-10.871
▁Naga	-10.871
▁constructor	-10.871
▁Night	-10.871
▁contrary	-10.871
▁Sky	-10.8711
▁legalization	-10.8711
▁punch	-10.8711
▁Coulter	-10.8711
▁synthetic	-10.8711
▁economist	-10.8711
▁principal	-10.8711
▁2003	-10.8711
▁ARAM	-10.8712
ountain	-10.8712
▁uncomfortable	-10.8712
▁ingres	-10.8713
▁Kick	-10.8713
▁Oval	-10.8713
▁endorse	-10.8713
▁Assembly	-10.8713
▁Switch	-10.8714
▁terrify	-10.8714
▁glue	-10.8715
▁documentation	-10.8715
▁evil	-10.8716
▁immune	-10.8716
▁Crown	-10.8716
▁Local	-10.8718
▁winter	-10.8718
▁Video	-10.8718
▁Point	-10.8718
▁hair	-10.8718
▁Senat	-10.8718
▁Garrison	-10.8719
▁Four	-10.8719
▁refuse	-10.872
▁Find	-10.8721
▁Learning	-10.8721
▁authorize	-10.8722
▁trailer	-10.8722
▁businessman	-10.8725
▁Freedom	-10.8725
▁description	-10.8725
▁diverse	-10.8726
▁convinced	-10.8726
▁coordinated	-10.8726
▁Sever	-10.8727
riva	-10.8729
▁rent	-10.873
▁backward	-10.8731
▁comit	-10.8733
▁Ri	-10.8733
▁download	-10.8733
▁fleet	-10.8733
▁br	-10.8734
▁Update	-10.8734
▁wider	-10.8734
▁wonderful	-10.8735
▁proof	-10.8736
▁frequently	-10.8736
▁Kei	-10.8738
▁Ox	-10.8738
▁plead	-10.8743
▁entry	-10.8744
▁selected	-10.8745
▁cold	-10.8745
▁substantial	-10.8747
▁Indiana	-10.8747
▁calm	-10.8748
▁Til	-10.8749
▁welcomed	-10.8756
▁causa	-10.8757
▁wire	-10.8757
▁Rich	-10.8757
▁nationalist	-10.8759
▁stone	-10.8762
▁Creat	-10.8765
▁replaced	-10.8767
▁army	-10.8772
▁ignored	-10.8772
▁“[	-10.8774
▁Series	-10.8775
▁strain	-10.8779
ked	-10.8782
warte	-10.8782
▁lab	-10.8783
86	-10.8783
▁adopted	-10.8786
▁pur	-10.8787
▁slowly	-10.8788
▁ir	-10.879
▁managers	-10.8792
▁artificial	-10.8793
▁Bell	-10.8794
▁drugs	-10.8794
▁difficulty	-10.8796
▁amend	-10.8798
-12	-10.8802
▁feelings	-10.8804
▁norms	-10.8816
cia	-10.8817
▁motives	-10.8819
▁$20	-10.8821
ft	-10.8827
Beto	-10.885
▁mail	-10.8868
▁Part	-10.8869
list	-10.8871
▁ice	-10.8872
▁informed	-10.8873
▁failing	-10.8874
▁SP	-10.8875
▁mine	-10.888
▁bear	-10.8881
ações	-10.8885
▁ER	-10.8898
ew	-10.8899
cher	-10.8904
55	-10.8905
handling	-10.8906
!)	-10.8911
▁outlets	-10.8923
▁arms	-10.8925
▁stake	-10.8944
▁holes	-10.895
rtle	-10.8955
▁intention	-10.8956
▁suit	-10.8965
bra	-10.8965
2.0	-10.8965
▁arguments	-10.8967
▁addressed	-10.8977
erek	-10.8978
org	-10.898
▁dad	-10.8983
▁monthly	-10.8984
▁sensors	-10.8985
7%	-10.8991
▁Nun	-10.9004
▁mini	-10.9006
▁Banks	-10.9008
▁dire	-10.9018
▁passing	-10.9028
▁examin	-10.9029
▁$9	-10.9034
▁Pre	-10.9034
▁cite	-10.9037
▁kan	-10.904
CG	-10.9042
▁missions	-10.905
iniz	-10.9061
▁experiment	-10.9072
▁hitt	-10.9076
part	-10.9082
▁hopes	-10.9095
bro	-10.9102
ctor	-10.9103
▁sind	-10.911
▁fal	-10.911
▁interviewed	-10.9116
▁scenes	-10.9117
▁nell	-10.9119
▁clients	-10.9131
ably	-10.9132
35	-10.9135
mir	-10.9141
▁Has	-10.9142
91	-10.9153
▁compromise	-10.9161
▁Ari	-10.9164
▁requested	-10.9164
pot	-10.9165
▁seasons	-10.9167
▁vo	-10.9175
75	-10.9182
▁festival	-10.9196
▁fate	-10.9198
ture	-10.9199
▁photograph	-10.9202
pm	-10.9202
▁creature	-10.9208
▁scientist	-10.9211
host	-10.9213
newable	-10.9214
ying	-10.9217
▁cop	-10.9221
▁commit	-10.9221
war	-10.9222
PA	-10.9223
▁division	-10.9228
▁sole	-10.9228
sea	-10.9229
▁element	-10.9234
post	-10.9236
▁payment	-10.925
▁marketing	-10.9253
ión	-10.9254
▁complaint	-10.9256
chen	-10.9259
▁quand	-10.9285
▁miss	-10.9289
▁spar	-10.9298
▁Ang	-10.9298
▁districts	-10.9301
aux	-10.9302
▁doctors	-10.9302
9%	-10.9307
▁$200	-10.9313
▁Jew	-10.9318
________________	-10.9326
Ex	-10.9345
ery	-10.9347
▁artist	-10.935
▁sch	-10.9355
▁pursu	-10.9357
▁EV	-10.9357
▁complain	-10.9362
call	-10.9369
wise	-10.937
where	-10.9372
▁acquir	-10.9375
▁Lig	-10.9375
▁mil	-10.9376
­	-10.9376
zioni	-10.9378
shirt	-10.938
▁complet	-10.9382
Why	-10.9383
including	-10.9384
wood	-10.9384
founder	-10.9391
who	-10.9394
▁roles	-10.9395
▁recruit	-10.9396
▁tweets	-10.9396
election	-10.9399
▁detect	-10.9401
hold	-10.9407
tech	-10.9408
–––––––––––––––	-10.9413
▁adjust	-10.9415
▁Fight	-10.9427
winning	-10.9431
▁alter	-10.9433
nl	-10.9441
▁resist	-10.9441
▁impose	-10.9441
▁reserve	-10.9444
tivo	-10.9444
▁combine	-10.9446
▁suppose	-10.9446
▁surprising	-10.945
▁remote	-10.9451
PR	-10.9454
▁dar	-10.9455
▁Fe	-10.9455
▁stess	-10.9462
tally	-10.9464
▁restore	-10.9464
▁consume	-10.9464
▁afirma	-10.9464
▁Hunt	-10.9466
▁Ann	-10.9467
▁column	-10.9473
▁impos	-10.9473
▁village	-10.9475
▁drama	-10.9475
hr	-10.9475
▁ilişki	-10.9476
▁Austria	-10.9476
▁Brazil	-10.9476
▁Carnegie	-10.9476
▁Criminal	-10.9476
▁Cubic	-10.9476
▁Dearborn	-10.9476
▁Elwartowski	-10.9476
▁FIFA	-10.9476
▁Gandhi	-10.9476
▁Initiative	-10.9476
▁Jenkins	-10.9476
▁Kavanaugh	-10.9476
▁Kingdom	-10.9476
▁MSNBC	-10.9476
▁Melbourne	-10.9476
▁Nacional	-10.9476
▁Spock	-10.9476
▁coffee	-10.9476
▁encouraging	-10.9476
▁experiencing	-10.9476
▁fantastic	-10.9476
▁gravitational	-10.9476
▁liberation	-10.9476
▁manufacturing	-10.9476
▁ordinance	-10.9476
▁phishing	-10.9476
▁satellite	-10.9476
▁sophisticated	-10.9476
▁survival	-10.9476
▁threshold	-10.9476
▁unusual	-10.9476
▁£1	-10.9476
▁Fantasy	-10.9476
▁orientation	-10.9476
▁Prince	-10.9476
▁Second	-10.9476
▁filter	-10.9476
Between	-10.9476
▁Corte	-10.9476
▁misconduct	-10.9476
▁Leigh	-10.9476
▁Hicks	-10.9476
▁jaw	-10.9476
▁Lopez	-10.9476
▁aesthetic	-10.9476
▁Lanka	-10.9476
▁horse	-10.9476
▁Nigel	-10.9476
▁fraction	-10.9476
▁rural	-10.9476
▁Travis	-10.9477
▁Castro	-10.9477
▁Check	-10.9477
▁Turn	-10.9477
feira	-10.9477
▁vague	-10.9477
▁fifth	-10.9477
▁Duke	-10.9477
▁havia	-10.9477
▁texture	-10.9477
▁surgery	-10.9477
▁$15	-10.9477
▁divestment	-10.9477
▁premise	-10.9477
▁signature	-10.9477
ira	-10.9478
▁pledge	-10.9478
▁expressão	-10.9478
▁Brush	-10.9478
▁Kama	-10.9478
▁hook	-10.9478
▁funny	-10.9478
▁Steam	-10.9479
▁offshore	-10.9479
▁Weiss	-10.9479
TED	-10.9479
▁refund	-10.9479
▁spell	-10.9479
▁Campus	-10.9479
▁bump	-10.948
▁indication	-10.948
▁distribution	-10.948
▁Huawei	-10.948
▁ISKCON	-10.948
▁Scotland	-10.948
▁critique	-10.948
▁independence	-10.948
▁DAN	-10.948
▁unlike	-10.9481
▁north	-10.9481
▁conviction	-10.9481
giLDI	-10.9481
▁corruption	-10.9481
▁Walker	-10.9482
▁2005	-10.9482
▁installation	-10.9482
▁assertion	-10.9482
▁diplomatic	-10.9483
▁momentum	-10.9484
▁Sales	-10.9484
▁Vice	-10.9484
▁complexity	-10.9485
pós	-10.9485
▁urgent	-10.9485
▁productive	-10.9485
▁soldier	-10.9485
path	-10.9486
▁respectively	-10.9487
▁Little	-10.9487
▁hypocrisy	-10.9488
▁Protecti	-10.9488
▁civilian	-10.9488
▁loyalty	-10.9488
▁anybody	-10.9489
▁algo	-10.9489
▁denial	-10.9489
▁extraordinary	-10.9489
ndi	-10.949
▁ET	-10.949
▁presentation	-10.949
▁1999	-10.949
▁Josh	-10.9491
▁negotiate	-10.9491
▁manipulate	-10.9493
▁dirty	-10.9493
▁accountable	-10.9494
▁underway	-10.9495
▁trace	-10.9495
▁audio	-10.9495
▁BJP	-10.9495
▁intellectual	-10.9496
▁enact	-10.9496
▁blitz	-10.9496
▁mock	-10.9497
▁pace	-10.9497
▁smile	-10.9498
▁Jose	-10.9499
▁feudal	-10.9502
lio	-10.9502
▁begun	-10.9502
▁fame	-10.9502
▁impli	-10.9502
▁nach	-10.9503
▁predict	-10.9504
▁toxic	-10.9504
▁observed	-10.9504
▁Everyone	-10.9505
▁Along	-10.9506
▁incredible	-10.9507
▁Kar	-10.9509
▁shooter	-10.9509
▁Circus	-10.951
dollar	-10.9511
ES	-10.9512
▁consistently	-10.9514
▁films	-10.9514
▁Aja	-10.9516
▁zo	-10.9516
▁formation	-10.9517
▁amigo	-10.9519
ría	-10.952
▁clock	-10.952
▁stead	-10.9521
going	-10.9521
],	-10.9521
▁worden	-10.9524
▁liberalism	-10.9527
▁translated	-10.9527
rank	-10.9533
▁Evans	-10.9534
▁shocked	-10.9535
TOR	-10.9535
▁ré	-10.9536
––––––––––––––––	-10.9537
▁(199	-10.9542
▁rev	-10.9546
▁gut	-10.9546
▁Mid	-10.9548
▁+–––––––	-10.9551
▁designate	-10.9551
▁Allen	-10.9552
▁ça	-10.9561
▁Canadians	-10.9561
▁demonstrated	-10.9562
source	-10.9565
▁songs	-10.9565
▁recommended	-10.9566
▁durant	-10.9569
▁granted	-10.9571
comfortable	-10.9573
▁retain	-10.9574
▁Mills	-10.9575
▁folks	-10.9576
▁centre	-10.9576
▁phones	-10.9579
win	-10.9579
ae	-10.9582
1600	-10.9583
▁suffered	-10.9586
▁Mary	-10.9588
struck	-10.9597
▁creators	-10.9598
try	-10.9599
▁subjects	-10.9601
▁reminded	-10.9604
▁mixed	-10.9605
▁controls	-10.9609
▁lesson	-10.961
▁Ab	-10.9613
▁ap	-10.9613
▁Arch	-10.9621
gel	-10.9627
▁Ge	-10.9627
▁fees	-10.9629
▁Dal	-10.9637
▁farmed	-10.9641
▁sie	-10.9644
▁defended	-10.9646
/6	-10.965
▁funded	-10.965
espera	-10.9651
▁exists	-10.9657
▁similarly	-10.9661
▁Net	-10.9664
thic	-10.9667
▁Bra	-10.9668
▁remarks	-10.9685
▁Dec	-10.9686
▁accusations	-10.9687
4)	-10.9694
mind	-10.9694
▁ba	-10.9697
▁hi	-10.9706
▁Sy	-10.9708
▁videos	-10.9709
▁dem	-10.9715
sche	-10.9717
▁performed	-10.9717
▁backs	-10.9717
▁Roman	-10.9718
▁hoped	-10.9718
ow	-10.9723
▁purchas	-10.973
▁Trade	-10.9733
▁undermin	-10.9739
▁daar	-10.9743
▁doses	-10.9745
▁ut	-10.9745
32	-10.975
▁signs	-10.9751
ante	-10.9754
▁undercut	-10.9763
▁Sol	-10.9764
▁Leave	-10.9765
ente	-10.9769
raw	-10.9771
▁concerning	-10.9775
▁authors	-10.9777
?"	-10.9782
▁Make	-10.9791
won	-10.98
49	-10.9803
▁bij	-10.981
▁doors	-10.9813
▁hits	-10.9813
sser	-10.9815
verse	-10.9816
ctively	-10.9833
▁aid	-10.9838
▁cri	-10.984
▁premiere	-10.9852
▁commented	-10.9853
now	-10.9854
▁Par	-10.9859
▁Jays	-10.9869
ua	-10.987
EN	-10.9871
▁shots	-10.9872
▁(...	-10.9885
▁pose	-10.9887
aria	-10.9888
▁Kath	-10.9891
▁sum	-10.9906
▁dias	-10.9911
▁aspects	-10.9911
▁2015.	-10.9914
▁thoughts	-10.9919
▁hole	-10.9921
83	-10.9921
▁cure	-10.9923
aba	-10.9926
ology	-10.9927
▁disorders	-10.9937
▁Dems	-10.9941
▁pit	-10.9958
▁locations	-10.996
▁outline	-10.9962
▁producers	-10.9962
rel	-10.9963
atric	-10.9973
raf	-10.9974
?)	-10.9978
amente	-10.9979
▁entrepreneur	-10.9982
▁studios	-10.9983
▁precio	-10.9986
lik	-10.9987
▁fed	-10.9988
sensitive	-11.0001
▁Bru	-11.0004
ollo	-11.0004
▁signals	-11.0005
▁Majorit	-11.0009
▁Zu	-11.0014
▁trips	-11.0021
▁danger	-11.0023
ö	-11.0026
▁revelation	-11.0029
▁puts	-11.003
AM	-11.0032
author	-11.0036
▁participant	-11.0038
▁umpire	-11.004
▁instrument	-11.0041
anda	-11.0043
▁opponent	-11.0044
▁headline	-11.0046
▁leftist	-11.0056
izing	-11.0057
▁Work	-11.006
▁wie	-11.0065
▁legs	-11.0066
loro	-11.0067
▁meta	-11.0074
▁cat	-11.0084
▁input	-11.0089
under	-11.0099
▁requir	-11.0099
▁tall	-11.0099
▁probes	-11.0103
▁Fi	-11.012
script	-11.0144
▁Nath	-11.0157
ş	-11.0162
anti	-11.0164
abba	-11.0171
▁$8	-11.0171
tent	-11.0172
▁Dar	-11.0174
ait	-11.0175
itude	-11.0175
▁guide	-11.0181
▁Laur	-11.0182
▁holds	-11.0182
▁founder	-11.0185
tà	-11.0185
iness	-11.0186
▁announc	-11.0195
▁rely	-11.0196
aving	-11.0202
rated	-11.0206
▁purposes	-11.0215
watch	-11.0216
Because	-11.0216
doubt	-11.0216
focus	-11.0217
Whil	-11.0218
season	-11.0218
type	-11.022
Even	-11.0222
▁rescue	-11.0223
▁farms	-11.0227
▁burn	-11.0228
quality	-11.023
FC	-11.0239
▁shout	-11.0239
ending	-11.0243
Do	-11.0244
▁cleared	-11.0244
step	-11.0252
▁increases	-11.0266
▁Engine	-11.0269
81	-11.0271
▁messag	-11.0272
▁incredibl	-11.0276
▁cooperate	-11.0278
▁denuncia	-11.028
▁striking	-11.0283
▁39	-11.0284
▁Si	-11.0289
SV	-11.029
▁luck	-11.0297
▁alcohol	-11.0305
▁Direct	-11.0305
▁Trans	-11.0306
▁Camp	-11.0307
▁confident	-11.0307
▁enthusias	-11.0308
▁Stoic	-11.0308
▁spirit	-11.0309
▁horizon	-11.0309
する	-11.0309
▁по	-11.0309
▁Calgary	-11.0309
▁troubling	-11.0309
▁uniform	-11.0309
mekte	-11.0309
~	-11.0309
▁Academy	-11.0309
▁Analysis	-11.0309
▁Assistant	-11.0309
▁Authority	-11.0309
▁Bichette	-11.0309
▁Binney	-11.0309
▁Brockway	-11.0309
▁Bronfman	-11.0309
▁Campbell	-11.0309
▁Coalition	-11.0309
▁Cummings	-11.0309
▁Double	-11.0309
▁Díaz	-11.0309
▁Fadiman	-11.0309
▁Fournier	-11.0309
▁Karremann	-11.0309
▁NEWS	-11.0309
▁Oklahoma	-11.0309
▁PLUS	-11.0309
▁Portsmouth	-11.0309
▁RPG	-11.0309
▁Raniere	-11.0309
▁Related	-11.0309
▁Spanish	-11.0309
▁Subscribe	-11.0309
▁Szepat	-11.0309
▁Tottenham	-11.0309
▁Vermont	-11.0309
▁WhatsApp	-11.0309
▁affiliate	-11.0309
▁assumption	-11.0309
▁cautious	-11.0309
▁collude	-11.0309
▁controversy	-11.0309
▁diagnosis	-11.0309
▁dictate	-11.0309
▁entrevista	-11.0309
▁leverage	-11.0309
▁petty	-11.0309
▁pleasure	-11.0309
▁scrutiny	-11.0309
▁sidewalk	-11.0309
▁stretch	-11.0309
▁stroke	-11.0309
▁stupid	-11.0309
▁swift	-11.0309
▁territory	-11.0309
▁unemployment	-11.0309
▁Independent	-11.0309
▁NAVO	-11.0309
▁absence	-11.0309
▁confusing	-11.0309
▁default	-11.0309
▁massacre	-11.0309
▁sheriff	-11.0309
▁McDonald	-11.0309
▁whistleblower	-11.0309
▁Hamilton	-11.0309
▁grade	-11.0309
▁Baltic	-11.031
▁Third	-11.031
▁tragedy	-11.031
▁Schiff	-11.031
▁dirt	-11.031
▁applicable	-11.031
▁inquérito	-11.031
▁wrongdoing	-11.031
▁dossier	-11.031
▁literature	-11.031
generating	-11.031
▁Speed	-11.031
▁Musk	-11.031
▁circulat	-11.031
▁disinformation	-11.031
▁robotics	-11.031
▁Montreal	-11.031
▁exceed	-11.031
▁Combat	-11.031
▁rumor	-11.031
▁Xbox	-11.031
▁Shield	-11.031
▁inclusion	-11.031
▁Kumar	-11.031
▁Avenue	-11.031
ício	-11.031
▁disclosure	-11.031
▁dummy	-11.031
▁distress	-11.031
▁Olympic	-11.031
▁conversion	-11.031
▁Metropolitan	-11.031
▁connections	-11.031
▁discount	-11.031
▁advertisement	-11.031
ウルトラマン	-11.031
▁pivot	-11.0311
▁Alliance	-11.0311
時	-11.0311
▁Garden	-11.0311
▁smear	-11.0311
▁años	-11.0311
▁tissue	-11.0311
▁stance	-11.0311
った	-11.0311
から	-11.0311
▁werden	-11.0311
▁tarde	-11.0311
▁consent	-11.0311
▁copies	-11.0311
▁hatred	-11.0311
▁snap	-11.0311
一	-11.0312
▁ghost	-11.0312
▁Conway	-11.0312
▁Cyber	-11.0312
▁alliance	-11.0312
▁testified	-11.0312
▁Fernandes	-11.0312
▁achievement	-11.0312
pec	-11.0313
▁ballot	-11.0313
▁backlash	-11.0313
▁Alvo	-11.0313
▁tight	-11.0313
▁overwhelming	-11.0313
▁biological	-11.0313
▁Governor	-11.0313
▁definitive	-11.0314
▁filing	-11.0314
▁Latin	-11.0314
▁$1,000	-11.0314
▁engagement	-11.0314
▁Cannabis	-11.0314
▁Edmonton	-11.0314
▁Enterprise	-11.0314
▁Erdogan	-11.0314
▁Nevin	-11.0314
▁Battlefield	-11.0314
▁grip	-11.0314
▁exile	-11.0315
▁demonstration	-11.0315
▁Italy	-11.0315
▁counties	-11.0315
nne	-11.0316
▁Mari	-11.0316
▁vida	-11.0316
▁pornography	-11.0317
▁output	-11.0317
▁Jean	-11.0317
▁memo	-11.0317
▁pretend	-11.0317
▁joy	-11.0317
src	-11.0317
▁instructed	-11.0318
▁disappointed	-11.0318
▁denies	-11.0319
▁located	-11.0319
▁Rather	-11.0321
▁Head	-11.0322
▁genre	-11.0322
▁FOIA	-11.0322
▁racism	-11.0322
▁Blue	-11.0322
▁Source	-11.0322
▁attendant	-11.0322
▁modo	-11.0323
▁invertebrates	-11.0323
▁Moon	-11.0323
▁transformation	-11.0323
▁bin	-11.0324
▁journalism	-11.0324
▁judicial	-11.0325
▁Mother	-11.0326
▁statue	-11.0326
▁peak	-11.0327
▁esse	-11.0328
▁Join	-11.0329
▁Henr	-11.0329
▁elaborate	-11.033
▁Information	-11.033
▁frustrated	-11.0331
▁replace	-11.0332
▁bond	-11.0332
▁orbit	-11.0332
▁advised	-11.0333
▁hang	-11.0333
held	-11.0333
▁strengthen	-11.0333
▁disabled	-11.0335
▁anymore	-11.0335
▁occupie	-11.0336
▁58	-11.0338
▁Islam	-11.0339
▁Penn	-11.034
▁relief	-11.034
empre	-11.0341
▁nun	-11.0341
▁ço	-11.0342
▁Andy	-11.0343
▁Maybe	-11.0344
▁provincial	-11.0345
▁endless	-11.0346
▁mechanics	-11.0346
▁Dun	-11.0347
▁participated	-11.0349
▁practices	-11.0352
▁Hart	-11.0352
▁attackers	-11.0353
▁storm	-11.0355
▁bourgeois	-11.0356
-20	-11.0356
▁hon	-11.0357
▁firms	-11.0357
▁reviv	-11.0357
▁auth	-11.0357
▁regions	-11.0358
resistant	-11.0358
▁resolved	-11.036
▁Add	-11.036
▁rarely	-11.0361
▁vary	-11.0363
▁wipe	-11.0365
▁proven	-11.0368
▁Real	-11.0369
▁Fighter	-11.037
▁instructions	-11.037
▁Hand	-11.0371
▁tenants	-11.0371
▁Georgia	-11.0372
▁deserved	-11.0376
▁Strassers	-11.0379
▁licensed	-11.0381
▁Um	-11.0381
▁mask	-11.0381
▁prepare	-11.0382
▁gene	-11.0383
start	-11.0383
▁exchanger	-11.0385
▁striker	-11.0389
▁pushe	-11.039
-35	-11.039
▁MP	-11.039
▁duo	-11.0391
ussi	-11.0392
▁Asian	-11.0393
▁Say	-11.0394
▁Associat	-11.0395
▁None	-11.0395
▁CO	-11.0401
▁makeup	-11.0402
▁1%	-11.0402
▁pursued	-11.0405
Vine	-11.0407
▁wounded	-11.0408
▁Twitch	-11.041
▁insisted	-11.0413
▁collected	-11.0413
▁sc	-11.0418
ini	-11.042
ür	-11.0422
▁emerged	-11.0423
▁cr	-11.0424
▁Das	-11.0426
▁Start	-11.0429
▁crying	-11.0432
▁memes	-11.0443
▁origins	-11.0444
risk	-11.0445
▁ile	-11.0449
▁donne	-11.045
▁mandate	-11.0451
ola	-11.0454
▁quo	-11.0459
▁th	-11.0464
▁Thus	-11.0466
▁destroyed	-11.0467
▁Braves	-11.0467
▁Fort	-11.0467
▁stages	-11.0482
▁theaters	-11.0492
▁о	-11.0496
ONE	-11.0499
ju	-11.0503
▁friendly	-11.0503
▁coat	-11.0518
▁maintained	-11.0521
▁habit	-11.0525
▁scores	-11.0525
▁silence	-11.0527
▁indicates	-11.0533
▁surg	-11.0533
▁visa	-11.0537
▁Rob	-11.0545
▁crossing	-11.0546
▁officially	-11.0556
▁Toy	-11.0556
▁roots	-11.0561
▁improvements	-11.0564
▁ob	-11.0568
▁mad	-11.0573
▁cheat	-11.0576
▁participants	-11.0589
▁UI	-11.059
▁pen	-11.0599
▁justify	-11.0608
▁ill	-11.0612
▁complaints	-11.0614
▁Ken	-11.0614
▁affairs	-11.062
asta	-11.0621
▁abortions	-11.0622
▁Leg	-11.0625
rust	-11.0626
▁falling	-11.0627
▁fra	-11.0629
▁fr	-11.0631
▁pri	-11.0635
▁heating	-11.0637
▁250	-11.0637
▁newly	-11.0639
rmal	-11.0639
ika	-11.0649
▁Fac	-11.065
ette	-11.0652
▁scholar	-11.0662
▁evaluate	-11.0666
▁slate	-11.067
▁admit	-11.0674
rant	-11.0681
▁debates	-11.0688
▁Bor	-11.0692
▁organs	-11.0694
▁directing	-11.0698
ski	-11.0698
urged	-11.0704
▁proteins	-11.0713
▁tested	-11.0719
▁perceiv	-11.0722
▁с	-11.0728
bit	-11.0728
tz	-11.0748
▁persona	-11.0749
▁55	-11.0751
96	-11.0754
liance	-11.0758
▁conce	-11.0761
▁$10	-11.0766
▁fu	-11.0768
▁Near	-11.0771
▁pris	-11.0776
ém	-11.0777
04	-11.0778
▁walls	-11.0788
▁magazines	-11.0788
▁Met	-11.0788
▁66	-11.0789
2%	-11.0793
▁notable	-11.0803
▁42	-11.0805
▁teach	-11.0811
▁Thanks	-11.0813
das	-11.082
onic	-11.0828
6%)	-11.0831
▁Inter	-11.0844
,500	-11.0847
▁animat	-11.0856
ders	-11.0862
47	-11.087
Map	-11.0876
▁Fund	-11.088
uz	-11.09
wel	-11.0902
▁Lu	-11.0913
▁mentions	-11.0924
boxing	-11.0927
▁Por	-11.0928
iding	-11.093
▁Orlean	-11.0934
ref	-11.0935
▁provision	-11.0938
▁lawsuits	-11.0939
▁cycles	-11.0939
word	-11.094
▁restaurant	-11.0941
▁oligarch	-11.0941
▁volunteer	-11.0941
▁conclude	-11.0941
▁session	-11.0946
▁franchise	-11.0946
▁Reaper	-11.0952
▁submit	-11.0956
▁restriction	-11.0957
▁Lithuanian	-11.0958
▁improvement	-11.0959
▁Nation	-11.0963
▁acknowledge	-11.0965
▁48	-11.0968
▁elite	-11.097
▁65	-11.0971
pp	-11.0972
▁root	-11.0973
▁num	-11.0975
▁mon	-11.0977
stream	-11.0979
▁institution	-11.0984
▁(2	-11.0986
▁minute	-11.1003
▁outlet	-11.1006
▁yaş	-11.1007
()	-11.1011
check	-11.1014
hop	-11.1016
▁Hol	-11.1024
▁Rights	-11.1041
nan	-11.1048
chan	-11.1051
▁nav	-11.106
cie	-11.1063
▁donation	-11.1064
▁presents	-11.1065
▁(4	-11.1074
▁bird	-11.1074
▁instant	-11.1075
▁deze	-11.1077
▁Pen	-11.1079
▁$3.	-11.108
▁introduc	-11.1084
▁posi	-11.1091
bility	-11.1093
▁rating	-11.1097
name	-11.1101
▁disc	-11.1109
14	-11.1115
minded	-11.1116
▁killings	-11.1118
known	-11.1121
high	-11.1122
turn	-11.1123
▁Continu	-11.1123
safety	-11.1126
music	-11.1126
Rachel	-11.1126
government	-11.1126
location	-11.1127
final	-11.1127
н	-11.1127
CNN	-11.1128
room	-11.1128
month	-11.1132
cord	-11.1135
▁rotat	-11.1138
bound	-11.1142
▁punish	-11.1154
report	-11.1155
▁strategic	-11.1159
▁Fla	-11.116
Dur	-11.1163
▁twee	-11.1165
Democrats	-11.1167
▁profession	-11.1172
funded	-11.1172
native	-11.1176
idos	-11.1178
tract	-11.1184
▁Iraq	-11.1185
OS	-11.1196
▁recuse	-11.1198
▁counts	-11.1207
▁bundle	-11.1207
▁Speci	-11.1207
▁tank	-11.1209
▁illness	-11.1212
gro	-11.1217
▁rela	-11.1217
▁hype	-11.1218
▁east	-11.1218
▁climb	-11.1219
▁incarcerat	-11.1219
▁Philadelphia	-11.1219
Polygon	-11.1219
©	-11.1219
▁Alexisonfire	-11.1219
▁Amendment	-11.1219
▁Collins	-11.1219
▁Cruz	-11.1219
▁Demirel	-11.1219
▁Gideon	-11.1219
▁Gillibrand	-11.1219
▁Lorraine	-11.1219
▁Mexican	-11.1219
▁Momoa	-11.1219
▁Mozilla	-11.1219
▁NSDAP	-11.1219
▁Patrol	-11.1219
▁Pennsylvania	-11.1219
▁Policía	-11.1219
▁Religio	-11.1219
▁Tripoli	-11.1219
▁WIRED	-11.1219
▁Zambrano	-11.1219
▁artifacts	-11.1219
▁asylum	-11.1219
▁bathroom	-11.1219
▁chamber	-11.1219
▁charging	-11.1219
▁destination	-11.1219
▁discourage	-11.1219
▁fregat	-11.1219
▁mercado	-11.1219
▁neutral	-11.1219
▁prevail	-11.1219
▁referendum	-11.1219
▁strategies	-11.1219
▁taxpayers	-11.1219
▁unredacted	-11.1219
▁FHA	-11.1219
▁Mitch	-11.1219
▁lobbying	-11.1219
▁sweet	-11.1219
▁sicure	-11.1219
▁unsuccessful	-11.1219
▁excellen	-11.1219
▁flames	-11.1219
▁innocent	-11.1219
▁redactions	-11.1219
▁smooth	-11.1219
▁Switek	-11.1219
▁wrist	-11.1219
▁Samsung	-11.1219
▁deputies	-11.1219
▁drink	-11.1219
▁notorious	-11.1219
▁Spurs	-11.1219
▁embedd	-11.1219
▁workforce	-11.1219
ら	-11.1219
▁Belloc	-11.1219
▁Kennedy	-11.1219
▁Digit	-11.1219
▁drill	-11.1219
▁equipped	-11.1219
▁resort	-11.1219
Monitor	-11.1219
▁criteria	-11.1219
▁medicine	-11.1219
▁expense	-11.1219
▁pension	-11.1219
▁collaboration	-11.1219
▁legislators	-11.1219
liminar	-11.1219
▁childhood	-11.1219
▁vocal	-11.1219
▁afford	-11.1219
▁hives	-11.1219
▁versus	-11.1219
ス	-11.1219
▁feces	-11.1219
▁Estado	-11.1219
▁penalty	-11.1219
▁programming	-11.1219
▁gift	-11.1219
▁innovation	-11.1219
▁integral	-11.1219
ます	-11.1219
MENT	-11.1219
▁charities	-11.1219
▁Soros	-11.122
PSL	-11.122
▁MLB	-11.122
Calif	-11.122
▁authentication	-11.122
▁insult	-11.122
▁Jackson	-11.122
▁ramp	-11.122
▁pause	-11.122
▁imagination	-11.122
▁Warner	-11.122
▁Below	-11.122
▁STF	-11.122
▁Micro	-11.122
▁exciting	-11.122
▁twist	-11.122
▁habitat	-11.122
▁Knight	-11.122
▁correspondent	-11.122
▁intense	-11.122
▁fence	-11.1221
AOC	-11.1221
▁Freeland	-11.1221
▁landscape	-11.1221
▁neuro	-11.1221
▁Ryan	-11.1222
▁Canning	-11.1222
▁apartment	-11.1222
▁medium	-11.1222
▁448	-11.1222
▁DHS	-11.1222
ikke	-11.1222
▁underground	-11.1222
▁pounds	-11.1222
▁flies	-11.1222
▁empower	-11.1222
uster	-11.1223
▁sabe	-11.1223
▁Six	-11.1223
▁duration	-11.1223
▁acordo	-11.1224
▁lifestyle	-11.1224
▁😂	-11.1224
▁WASHINGTON	-11.1224
▁bytecode	-11.1224
▁constitute	-11.1224
▁emphasis	-11.1224
▁militia	-11.1224
▁ridiculous	-11.1224
▁Ultimately	-11.1224
▁Breitbart	-11.1224
▁Wright	-11.1224
▁Championship	-11.1224
▁continuous	-11.1225
▁obsession	-11.1225
▁belt	-11.1225
▁MSM	-11.1225
▁refusal	-11.1225
▁Stoicism	-11.1225
▁temple	-11.1226
▁Hank	-11.1226
▁Socialist	-11.1226
▁adventure	-11.1226
▁Cox	-11.1226
▁offence	-11.1226
kle	-11.1226
▁comedy	-11.1227
▁Nick	-11.1227
▁Train	-11.1227
▁raid	-11.1227
▁anywhere	-11.1228
▁recovery	-11.1228
▁arguably	-11.1228
▁submitted	-11.1228
▁directive	-11.1229
▁priority	-11.1229
▁Warden	-11.1229
▁engaging	-11.123
▁baseless	-11.1231
▁Navy	-11.1231
▁Dead	-11.1231
▁2006	-11.1232
▁fecal	-11.1233
▁Medicare	-11.1233
▁Geth	-11.1233
▁persistent	-11.1233
▁Human	-11.1234
▁contamination	-11.1234
▁stark	-11.1236
▁rain	-11.1236
▁chronic	-11.1237
▁conventional	-11.1237
▁Change	-11.1238
▁strongest	-11.1238
▁III	-11.1238
▁realise	-11.1238
▁Royal	-11.1239
tek	-11.124
▁über	-11.124
▁columnist	-11.1241
▁square	-11.1241
▁pal	-11.1242
▁nail	-11.1243
▁password	-11.1243
▁43	-11.1243
▁Levin	-11.1243
▁losses	-11.1243
▁sentiment	-11.1244
▁anniversary	-11.1245
▁reactionary	-11.1246
▁hopefully	-11.1247
▁immigrant	-11.1248
▁Pass	-11.1248
▁Aura	-11.1248
▁announce	-11.1249
▁vez	-11.1249
▁recognition	-11.1251
▁Chick	-11.1252
▁Ball	-11.1253
▁remembers	-11.1254
▁pursue	-11.1255
▁Ca	-11.1255
▁fallen	-11.1255
▁spite	-11.1255
▁Burn	-11.1257
abha	-11.1257
▁Phillips	-11.1259
▁corporations	-11.1259
there	-11.126
▁Everything	-11.1261
▁singer	-11.1261
Bo	-11.1261
▁revolutionary	-11.1264
▁Mind	-11.1267
▁bra	-11.1268
▁Medic	-11.1268
▁zum	-11.1269
▁Seven	-11.1272
▁screaming	-11.1273
▁hint	-11.1274
▁Sal	-11.1274
▁guaranteed	-11.1277
▁Try	-11.1278
▁aviation	-11.1279
▁prima	-11.128
▁Award	-11.1282
1/	-11.1282
▁indicated	-11.1282
▁correctly	-11.1282
▁outright	-11.1286
▁burned	-11.1286
pic	-11.129
▁originat	-11.1291
▁accurately	-11.1291
▁complained	-11.1292
▁parliament	-11.1295
▁voluntari	-11.1297
▁leaked	-11.13
nell	-11.1303
▁lore	-11.1304
▁cha	-11.1306
▁supposedly	-11.1308
▁insects	-11.1312
inch	-11.1312
▁temp	-11.1312
sync	-11.1313
▁OK	-11.1313
La	-11.1315
▁blacks	-11.1316
solve	-11.1319
niz	-11.132
▁antes	-11.1325
▁whites	-11.1327
▁informa	-11.1327
▁Ven	-11.1327
▁Manning	-11.1328
▁Job	-11.1328
SS	-11.1329
▁Cup	-11.1332
▁Politics	-11.134
▁85	-11.1341
201	-11.1342
ji	-11.1344
rk	-11.1347
▁[]	-11.135
95	-11.1352
▁lied	-11.1355
lock	-11.1356
tus	-11.1356
▁Abu	-11.1358
immer	-11.1362
▁upgrade	-11.1362
ties	-11.1362
960	-11.1365
27	-11.1374
▁enabled	-11.1375
▁defeated	-11.1379
▁switching	-11.1382
▁Nu	-11.1384
▁notion	-11.1389
▁Give	-11.1389
SO	-11.1391
▁relations	-11.1392
я	-11.1392
▁wondering	-11.1397
▁___	-11.1401
▁Ask	-11.1402
▁automat	-11.1402
star	-11.1406
▁transferr	-11.1416
▁Cap	-11.142
read	-11.1422
▁ping	-11.1423
▁tout	-11.1424
▁urge	-11.1436
▁Falls	-11.1443
▁guests	-11.1445
▁dating	-11.1454
▁gal	-11.1456
fore	-11.1463
▁badly	-11.1471
▁defending	-11.1472
▁Ever	-11.1474
▁extract	-11.1474
gate	-11.1476
yard	-11.1477
▁sacrifice	-11.1489
с	-11.1493
▁sessions	-11.1499
▁cheer	-11.1513
há	-11.1516
▁Gam	-11.1517
▁2020.	-11.1517
law	-11.1522
▁ol	-11.1522
▁sal	-11.153
▁surely	-11.153
▁headlines	-11.1531
enti	-11.1533
tial	-11.1537
▁computers	-11.1538
▁vet	-11.154
▁Val	-11.1544
▁artists	-11.155
▁behave	-11.1552
▁Major	-11.1558
▁importantly	-11.1561
▁bl	-11.1566
▁cops	-11.1567
▁Sound	-11.1569
▁distribut	-11.1575
▁planting	-11.1589
▁dose	-11.1598
rar	-11.1603
▁isso	-11.1606
▁recommendations	-11.1608
▁insights	-11.1608
▁Charl	-11.1614
▁fears	-11.1622
▁Inc	-11.1623
nar	-11.1623
ava	-11.1628
yer	-11.1637
▁staying	-11.1638
▁receivers	-11.164
▁Arm	-11.1641
▁initiate	-11.1646
illusion	-11.1648
die	-11.1649
▁shame	-11.1652
ei	-11.166
▁flag	-11.1661
lı	-11.1664
▁forth	-11.1666
via	-11.1669
▁west	-11.1672
▁dogs	-11.1677
were	-11.168
▁Bret	-11.168
▁designer	-11.1686
zu	-11.1694
▁weekly	-11.1695
▁Ph	-11.1699
▁battles	-11.17
SB	-11.1715
she	-11.1715
ias	-11.1716
selling	-11.1717
▁chemicals	-11.1718
▁patterns	-11.1718
▁failures	-11.1718
▁Ke	-11.1718
▁Rd	-11.1732
late	-11.1733
▁aims	-11.1735
▁breaks	-11.1739
▁differently	-11.1745
▁semi	-11.1746
ony	-11.1756
silo	-11.1761
▁vai	-11.1761
▁theft	-11.1764
▁andere	-11.1767
Communist	-11.1768
▁acted	-11.177
▁mistakes	-11.1774
▁accidental	-11.178
▁protecting	-11.1791
registered	-11.1798
▁tasks	-11.1801
▁lend	-11.1807
▁fle	-11.1817
▁Less	-11.1817
▁51	-11.1826
NY	-11.1828
mor	-11.1828
▁diseases	-11.1829
▁User	-11.1837
▁shoot	-11.1841
▁Fr	-11.1856
▁representatives	-11.1857
▁windows	-11.1857
▁SA	-11.1858
▁emerg	-11.1866
ood	-11.1874
ction	-11.1881
▁Tri	-11.1882
▁remark	-11.189
yne	-11.1892
▁$12	-11.1898
prompted	-11.1918
xi	-11.1918
timi	-11.1918
At	-11.1928
PF	-11.1929
▁brick	-11.1935
る	-11.1937
▁newsletter	-11.1941
▁DC	-11.1944
▁protections	-11.1945
▁dal	-11.1947
vy	-11.1949
▁accusation	-11.195
▁Champion	-11.1951
▁consequence	-11.1954
▁communication	-11.1959
▁resource	-11.1961
▁mile	-11.1964
Time	-11.1975
En	-11.1978
▁profit	-11.198
1%	-11.1984
▁sponsor	-11.1985
umber	-11.1989
▁estab	-11.199
▁formed	-11.1991
just	-11.1991
▁$7	-11.1997
39	-11.1998
▁camps	-11.2003
▁span	-11.2022
cep	-11.2024
aid	-11.2039
▁Nar	-11.2042
▁67	-11.2046
▁Suns	-11.2049
▁Ali	-11.2052
▁han	-11.2053
▁enabl	-11.2053
▁vigil	-11.2053
▁cameras	-11.2054
▁undu	-11.2055
▁75	-11.2055
▁41	-11.2057
▁Way	-11.2067
ú	-11.2067
VP	-11.2069
▁accus	-11.2073
▁enforc	-11.2078
▁shock	-11.208
▁urg	-11.2081
23	-11.2084
used	-11.2087
▁rhetoric	-11.2088
cu	-11.2099
▁reader	-11.2101
▁x	-11.2107
▁Profess	-11.211
graph	-11.211
▁associates	-11.2111
Russia	-11.2114
Station	-11.2117
▁conclud	-11.2119
AFP	-11.212
▁releas	-11.2122
social	-11.2123
+–––––––	-11.2123
ground	-11.2123
Series	-11.2123
complete	-11.2126
|	-11.2126
▁Che	-11.2127
Just	-11.2128
▁margin	-11.2129
Some	-11.2131
good	-11.2131
friendly	-11.2132
chief	-11.2134
▁meno	-11.2134
▁var	-11.2135
▁NE	-11.2136
ée	-11.2137
left	-11.2138
Russian	-11.2139
fake	-11.2145
face	-11.2148
loved	-11.2151
Com	-11.2152
Pro	-11.2152
party	-11.2153
▁asks	-11.2153
gh	-11.2153
dio	-11.2154
▁4,	-11.2156
▁sleep	-11.2156
Yes	-11.2163
▁52	-11.2164
▁starter	-11.2166
▁considera	-11.2169
fighting	-11.217
cul	-11.2172
▁trauma	-11.2174
making	-11.2175
await	-11.2181
▁accord	-11.2182
werk	-11.2184
generation	-11.2185
▁Com	-11.2186
aj	-11.2189
vic	-11.219
▁explicit	-11.2195
▁logo	-11.22
zy	-11.2206
▁HD	-11.2208
▁Social	-11.2208
▁occup	-11.221
▁cheap	-11.2211
▁Prior	-11.2214
▁Support	-11.2215
▁suppress	-11.2215
▁architect	-11.2216
▁cyber	-11.2217
▁favour	-11.2217
zards	-11.2218
One	-11.2218
з	-11.2218
├	-11.2218
┼	-11.2218
siyon	-11.2218
▁grave	-11.2219
Hundreds	-11.2219
Karbouly	-11.2219
ì	-11.2219
┤	-11.2219
▁Animorph	-11.2219
▁Chrome	-11.2219
▁Connecticut	-11.2219
▁Corbyn	-11.2219
▁Creggan	-11.2219
▁Dakota	-11.2219
▁Entertainment	-11.2219
▁Ethlance	-11.2219
▁Fenerbahce	-11.2219
▁García	-11.2219
▁Hussein	-11.2219
▁Klobuchar	-11.2219
▁Liquid	-11.2219
▁Londonderry	-11.2219
▁Margaret	-11.2219
▁Melissa	-11.2219
▁Merricks	-11.2219
▁Nessel	-11.2219
▁Nixon	-11.2219
▁República	-11.2219
▁Sandberg	-11.2219
▁Sekulow	-11.2219
▁Stallone	-11.2219
▁Technology	-11.2219
▁Wisconsin	-11.2219
▁Wyndford	-11.2219
▁afirmou	-11.2219
▁ambassador	-11.2219
▁blanket	-11.2219
▁breast	-11.2219
▁brilliant	-11.2219
▁caution	-11.2219
▁consumption	-11.2219
▁deficit	-11.2219
▁dictionary	-11.2219
▁incremental	-11.2219
▁jurisdiction	-11.2219
▁militant	-11.2219
▁mirror	-11.2219
▁médico	-11.2219
▁nervous	-11.2219
▁portrait	-11.2219
▁rapport	-11.2219
▁recognise	-11.2219
▁recollection	-11.2219
▁stunning	-11.2219
▁sweep	-11.2219
▁sympathy	-11.2219
▁tendency	-11.2219
▁vaccine	-11.2219
▁wisdom	-11.2219
▁și	-11.2219
▁Verhey	-11.2219
▁fetch	-11.2219
▁hammer	-11.2219
▁toddler	-11.2219
▁ADVERTIS	-11.2219
▁Psychi	-11.2219
▁bridge	-11.2219
▁patrol	-11.2219
▁quinta	-11.2219
▁Peace	-11.2219
▁prosecute	-11.2219
▁wealthiest	-11.2219
▁stitch	-11.2219
▁theoretical	-11.2219
▁okay	-11.2219
▁Esports	-11.2219
▁Davos	-11.2219
▁dialogue	-11.2219
▁nickname	-11.2219
▁FCVs	-11.2219
▁footnote	-11.2219
▁knee	-11.2219
▁Revue	-11.2219
▁married	-11.2219
▁flavor	-11.2219
▁Antonio	-11.2219
roxima	-11.2219
▁args	-11.2219
argent	-11.2219
▁Minute	-11.2219
▁humor	-11.2219
▁slamm	-11.2219
▁Vitale	-11.2219
▁Sharpton	-11.2219
中	-11.2219
▁Exchange	-11.2219
università	-11.2219
▁comedian	-11.2219
▁gymnastics	-11.2219
lip	-11.2219
▁Conference	-11.2219
▁colour	-11.2219
▁overseas	-11.2219
▁cabbage	-11.2219
==	-11.2219
▁Baseball	-11.2219
▁Guide	-11.2219
▁distinguish	-11.2219
▁Reddit	-11.2219
▁Queen	-11.2219
▁counterpart	-11.2219
▁retirement	-11.2219
▁examine	-11.2219
▁spider	-11.2219
▁spectrum	-11.2219
▁variable	-11.2219
▁HBO	-11.2219
CBC	-11.2219
▁View	-11.2219
▁pardon	-11.2219
▁degrad	-11.222
▁pathogens	-11.222
▁nationwide	-11.222
▁spotlight	-11.222
▁Madden	-11.222
▁inevitably	-11.222
▁favourite	-11.222
▁madness	-11.222
▁cows	-11.222
▁cosplay	-11.222
▁WTO	-11.222
▁meanwhile	-11.222
▁Vinta	-11.2221
▁DICE	-11.2221
▁Drug	-11.2221
▁Edward	-11.2221
▁harsh	-11.2221
manuel	-11.2221
▁Galaxy	-11.2221
▁shipping	-11.2222
▁reducing	-11.2222
▁solc	-11.2222
▁thick	-11.2222
▁mesmo	-11.2222
▁confidential	-11.2222
▁recess	-11.2222
▁weaknesses	-11.2222
neath	-11.2222
▁dragg	-11.2222
▁Weibo	-11.2222
▁pursuit	-11.2222
▁shuttle	-11.2222
▁Food	-11.2222
[...]	-11.2223
▁Coach	-11.2223
▁Dark	-11.2223
▁milk	-11.2223
▁resignation	-11.2223
▁pode	-11.2223
▁pump	-11.2223
▁própria	-11.2223
▁Feb	-11.2224
▁1980	-11.2224
▁atmosphere	-11.2224
▁mindset	-11.2224
▁1960	-11.2224
▁registration	-11.2224
▁Beach	-11.2225
▁segunda	-11.2225
▁MEP	-11.2225
▁cement	-11.2226
▁credits	-11.2226
▁violation	-11.2226
▁1990	-11.2226
▁crore	-11.2226
genous	-11.2227
▁Derry	-11.2227
▁enemy	-11.2227
▁confirmation	-11.2227
▁gunman	-11.2228
▁workplace	-11.2229
drew	-11.2229
▁rigorous	-11.2229
glad	-11.2229
this	-11.223
▁Father	-11.223
▁detector	-11.223
▁Kate	-11.223
▁chill	-11.2231
▁hip	-11.2231
▁Liberty	-11.2231
▁2,000	-11.2231
▁empresa	-11.2232
▁2002	-11.2233
▁triple	-11.2233
▁Lok	-11.2234
▁monument	-11.2234
▁Biggio	-11.2234
▁Monsanto	-11.2234
▁generic	-11.2234
▁grateful	-11.2234
▁mob	-11.2234
▁Researchers	-11.2235
▁Radio	-11.2235
▁Clarke	-11.2235
▁flawed	-11.2235
▁Building	-11.2237
▁merit	-11.2237
▁popularity	-11.2237
▁Pier	-11.2238
▁IN	-11.2239
▁openness	-11.224
▁somebody	-11.2242
▁metro	-11.2242
▁на	-11.2243
▁revis	-11.2244
▁Next	-11.2244
▁sanctioned	-11.2248
▁Enter	-11.225
nic	-11.225
▁busy	-11.2252
XT	-11.2252
▁conscious	-11.2254
▁172	-11.2256
▁erin	-11.2257
bn	-11.2259
▁Tell	-11.226
▁MB	-11.226
▁kit	-11.226
▁contractor	-11.2261
ault	-11.2261
uk	-11.2263
▁Tour	-11.2263
▁vertebrates	-11.2263
▁assumed	-11.2263
radic	-11.2264
▁tribunal	-11.2265
▁conspired	-11.2265
▁evolved	-11.2266
▁neoliberal	-11.2267
▁Cage	-11.2267
opher	-11.2267
▁Bry	-11.2268
▁veto	-11.2269
▁til	-11.2271
▁Call	-11.2273
▁disputed	-11.2273
▁Dat	-11.2277
▁height	-11.2278
▁chest	-11.2279
maker	-11.228
sho	-11.2282
▁Bala	-11.2285
ME	-11.2285
mar	-11.2286
US	-11.2288
▁severity	-11.229
rban	-11.2291
loc	-11.2292
▁Strikes	-11.2292
▁0.1	-11.2296
▁tale	-11.2297
▁Coming	-11.2297
▁gen	-11.2298
▁predicted	-11.2299
qualified	-11.23
▁todos	-11.2301
▁closes	-11.2302
▁forest	-11.2302
APP	-11.2303
▁hitter	-11.2307
▁consumed	-11.2307
▁Ten	-11.2308
▁fat	-11.2309
▁normally	-11.2311
▁descend	-11.2313
▁detected	-11.2315
▁UN	-11.2317
▁briefly	-11.2321
ación	-11.2325
▁pai	-11.2326
▁Ein	-11.2326
▁chef	-11.2329
▁Wor	-11.2331
ifying	-11.2332
▁scarc	-11.2333
▁button	-11.2338
kk	-11.2347
▁reduced	-11.2347
▁parking	-11.2347
▁geo	-11.2348
▁horas	-11.2351
▁})	-11.2351
take	-11.2352
▁werk	-11.2353
▁и	-11.2358
▁listening	-11.2361
▁Sandr	-11.2365
▁exceptional	-11.2366
▁Others	-11.2372
▁Lion	-11.2373
▁bugs	-11.2374
▁Bond	-11.2375
von	-11.2378
Wayne	-11.238
band	-11.238
rage	-11.238
iff	-11.2382
▁promotion	-11.2383
▁abus	-11.2385
▁listeners	-11.2387
▁Rein	-11.2387
▁hackers	-11.2391
trada	-11.2397
▁tent	-11.2398
▁tu	-11.24
69	-11.2401
Ca	-11.241
▁realm	-11.241
▁predators	-11.2411
ça	-11.2417
▁Libr	-11.2422
makers	-11.2424
▁investing	-11.2425
▁minors	-11.2431
▁Jane	-11.2432
▁republicans	-11.2441
▁lightsabers	-11.2441
▁reactors	-11.2441
iti	-11.2442
▁col	-11.2444
▁flip	-11.2448
('	-11.2451
▁judges	-11.2459
▁pero	-11.2466
ink	-11.2466
▁Angels	-11.2471
rail	-11.2474
▁drawing	-11.2475
▁exp	-11.2477
▁grounds	-11.249
▁bann	-11.2492
BB	-11.2495
hat	-11.2499
CS	-11.25
▁analysts	-11.2501
see	-11.2504
etter	-11.2505
57	-11.2507
etes	-11.2517
▁billions	-11.252
▁17.	-11.2521
▁forever	-11.2527
▁renew	-11.2528
▁elites	-11.2531
▁birds	-11.2531
hora	-11.2535
AS	-11.2539
79	-11.2541
▁beating	-11.2542
▁spit	-11.2544
OD	-11.2552
ky	-11.2555
▁62	-11.2561
▁Pat	-11.2565
bid	-11.2572
thing	-11.2584
igen	-11.2585
▁exchanges	-11.2585
▁Jews	-11.2588
▁div	-11.2589
▁photographs	-11.2591
▁fl	-11.2597
▁seller	-11.2597
seat	-11.2601
▁imp	-11.2611
▁dates	-11.2612
45	-11.2617
▁Posted	-11.2621
berg	-11.2627
▁stu	-11.2628
ix	-11.2643
▁Penguin	-11.2645
▁Sir	-11.2651
▁noi	-11.2653
HE	-11.2658
▁lev	-11.2669
IRS	-11.2671
▁Arro	-11.2677
▁formula	-11.2677
▁Sciences	-11.2682
▁parks	-11.2686
▁Tar	-11.2686
bal	-11.2693
▁sla	-11.2696
▁fato	-11.2704
IN	-11.2705
▁Vladi	-11.2705
▁Scho	-11.2707
48	-11.2709
trop	-11.271
▁warrants	-11.2713
IV	-11.2717
8)	-11.272
▁Lis	-11.2721
approximately	-11.2723
tics	-11.2723
▁withdraw	-11.273
▁Bet	-11.2732
imo	-11.2733
▁wins	-11.2735
▁Full	-11.274
▁delivering	-11.2743
Don	-11.2744
▁$500	-11.276
hm	-11.2761
cam	-11.2768
▁fre	-11.2772
▁Ham	-11.2772
▁homeless	-11.2779
woman	-11.2785
▁perceive	-11.2798
▁captur	-11.2799
stone	-11.2799
▁spr	-11.2809
▁shed	-11.281
cou	-11.2819
▁problema	-11.282
ogni	-11.2825
▁initiatives	-11.2836
RS	-11.284
bes	-11.2845
▁Key	-11.285
▁76	-11.2855
▁shak	-11.2861
▁rats	-11.2862
▁solicit	-11.2865
▁Pin	-11.2867
▁lacking	-11.287
wan	-11.2874
Events	-11.2892
▁gro	-11.2893
una	-11.2914
▁chip	-11.2927
▁economics	-11.2932
▁units	-11.2942
▁Gre	-11.2945
▁decid	-11.295
▁vol	-11.2952
▁travell	-11.2955
▁olan	-11.2957
▁fights	-11.2958
have	-11.2959
idas	-11.2959
duction	-11.2964
▁issu	-11.2965
▁leaves	-11.2973
▁541	-11.2977
rang	-11.2978
▁glo	-11.2984
▁Step	-11.2989
LY	-11.299
▁backgrounds	-11.2992
▁stops	-11.2993
▁whi	-11.3004
▁Yu	-11.3005
▁ka	-11.3006
▁causes	-11.3019
▁150	-11.3021
rav	-11.3022
▁chama	-11.303
31	-11.3036
▁occasion	-11.304
▁firearm	-11.3045
▁Ya	-11.3046
▁allege	-11.305
▁Email	-11.3055
▁mountain	-11.3055
▁manufacturer	-11.3056
▁guest	-11.3057
▁sca	-11.3057
▁affair	-11.3058
▁technique	-11.3061
▁Angel	-11.3063
▁Member	-11.3063
▁clip	-11.3063
▁heading	-11.3068
▁analyst	-11.3071
ically	-11.3071
▁alert	-11.3072
▁loan	-11.3075
▁indicate	-11.3082
▁sk	-11.3085
▁$30	-11.3089
▁Va	-11.309
▁wheel	-11.3093
▁Port	-11.311
▁versions	-11.3115
huck	-11.3117
▁Mais	-11.3128
▁prepar	-11.3134
▁Ul	-11.3142
erry	-11.3148
anta	-11.3149
▁dan	-11.3156
erta	-11.316
▁(19	-11.3166
▁diese	-11.3166
▁spotte	-11.3168
▁Gett	-11.317
pound	-11.3172
▁seize	-11.3178
▁Fall	-11.3184
ismo	-11.3187
fund	-11.3188
NN	-11.3188
front	-11.319
▁anterior	-11.3191
▁$18	-11.3193
▁excuse	-11.32
▁maps	-11.3205
▁hun	-11.3214
▁Vo	-11.3215
migrants	-11.3217
print	-11.3221
bora	-11.3221
▁elect	-11.3223
▁(5	-11.3227
Mobile	-11.3227
through	-11.3229
depth	-11.3232
▁staffer	-11.3234
uit	-11.3235
while	-11.3235
method	-11.3235
Muslim	-11.3236
issue	-11.3236
titled	-11.3236
finish	-11.3236
standard	-11.3236
crime	-11.3237
Body	-11.3237
Congress	-11.3237
White	-11.3237
bike	-11.3237
first	-11.3238
income	-11.3238
market	-11.3239
frontal	-11.324
block	-11.3241
▁wrap	-11.3243
when	-11.3248
▁44	-11.3249
tically	-11.3253
▁letters	-11.3254
controll	-11.3256
▁exploit	-11.3263
ounds	-11.3265
▁abandon	-11.3267
▁suspend	-11.3269
▁Rio	-11.327
▁select	-11.3271
▁colleg	-11.3273
Land	-11.3276
▁Gran	-11.3277
▁applications	-11.3279
mile	-11.3296
▁ads	-11.3298
▁coordinate	-11.3299
▁dominate	-11.3299
▁rapid	-11.3305
cover	-11.3305
▁Final	-11.3307
clined	-11.3308
▁motor	-11.3308
▁passion	-11.3309
▁Arab	-11.331
camb	-11.3311
▁generations	-11.3311
▁investiga	-11.3313
mpact	-11.3314
▁Vol	-11.3316
▁preced	-11.3318
non	-11.3318
gal	-11.3318
▁teenage	-11.332
encia	-11.332
▁thre	-11.332
lectoral	-11.3322
▁SNM	-11.3323
▁Dublin	-11.3325
▁deliberate	-11.3325
▁pray	-11.3326
▁migrat	-11.3327
arijuana	-11.3327
olícia	-11.3327
▁Provo	-11.3328
▁obsess	-11.3328
ô	-11.3328
ра	-11.3329
eyond	-11.3329
だ	-11.3329
-6/2019/	-11.3329
▁psiquiatr	-11.3329
proletarian	-11.333
▁Future	-11.333
▁Labrador	-11.333
▁Terror	-11.333
▁thieves	-11.333
Obviously	-11.333
Rashida	-11.333
inistério	-11.333
да	-11.333
▁Atlantic	-11.333
▁Bloomberg	-11.333
▁Borgneth	-11.333
▁Crucible	-11.333
▁Division	-11.333
▁Harvard	-11.333
▁JavaScript	-11.333
▁Kotaku	-11.333
▁Louisiana	-11.333
▁Madonna	-11.333
▁McAleenan	-11.333
▁McClatchy	-11.333
▁Minority	-11.333
▁Oakland	-11.333
▁Official	-11.333
▁Ordinance	-11.333
▁PythX	-11.333
▁Python	-11.333
▁Reserve	-11.333
▁Rykner	-11.333
▁Segundo	-11.333
▁Spencer	-11.333
▁Square	-11.333
▁Studies	-11.333
▁Wilson	-11.333
▁abilities	-11.333
▁centuries	-11.333
▁courage	-11.333
▁creativity	-11.333
▁diagnose	-11.333
▁discredit	-11.333
▁disregard	-11.333
▁dissident	-11.333
▁equivalent	-11.333
▁fraudulent	-11.333
▁grassroots	-11.333
▁librarian	-11.333
▁myClass	-11.333
▁negocia	-11.333
▁pregnancy	-11.333
▁público	-11.333
▁rebuilt	-11.333
▁refresh	-11.333
▁renovation	-11.333
▁rookie	-11.333
▁sacred	-11.333
▁sigiloso	-11.333
▁snatch	-11.333
▁specify	-11.333
▁substance	-11.333
▁territoire	-11.333
▁transparent	-11.333
▁vegetable	-11.333
▁Smash	-11.333
▁Steele	-11.333
▁XTZ	-11.333
▁Yunus	-11.333
▁isolated	-11.333
▁racial	-11.333
▁reliable	-11.333
▁whale	-11.333
して	-11.333
egurança	-11.333
▁Ebola	-11.333
▁Finance	-11.333
▁Finland	-11.333
▁Juncker	-11.333
▁PERA	-11.333
▁SNC	-11.333
▁Shepard	-11.333
▁bonus	-11.333
▁önce	-11.333
▁Idaho	-11.333
▁boord	-11.333
▁champs	-11.333
▁permission	-11.333
▁soccer	-11.333
▁guidelines	-11.333
▁oyster	-11.333
▁psychology	-11.333
▁battery	-11.333
▁Wolf	-11.333
▁collaborative	-11.333
▁depois	-11.333
・	-11.333
▁CLI	-11.333
▁monarchy	-11.333
▁Gathering	-11.333
▁superior	-11.333
▁Federation	-11.333
▁implications	-11.333
▁Carnaval	-11.333
▁Stalin	-11.333
▁Constructor	-11.333
▁Embed	-11.333
tactical	-11.333
▁adequate	-11.333
▁boundaries	-11.333
▁ICO	-11.333
▁slot	-11.333
▁smoke	-11.333
▁discourse	-11.333
▁dummies	-11.333
▁liquid	-11.333
▁Education	-11.333
▁Prison	-11.333
▁prevalen	-11.333
▁minimiz	-11.333
▁Ferrari	-11.333
▁biomass	-11.333
▁billionaire	-11.333
▁guidance	-11.333
▁warehouse	-11.333
▁disappointment	-11.333
▁modified	-11.333
▁frustrating	-11.333
▁simultaneously	-11.333
▁calendar	-11.333
▁venture	-11.333
▁incorrect	-11.333
行	-11.333
▁zien	-11.333
▁Stanley	-11.333
▁abstract	-11.333
▁neurons	-11.333
▁Okay	-11.333
▁summit	-11.333
イ	-11.333
▁spill	-11.333
spawn	-11.333
▁brug	-11.333
▁interval	-11.333
▁supermarket	-11.333
▁flagship	-11.333
▁woke	-11.333
▁Builders	-11.333
▁parasite	-11.333
▁organisms	-11.333
▁medication	-11.333
▁aumento	-11.333
▁equity	-11.333
▁shotgun	-11.333
ensus	-11.333
▁Yemen	-11.3331
rsenal	-11.3331
▁missile	-11.3331
▁payroll	-11.3331
▁profound	-11.3331
▁prize	-11.3331
▁Kelman	-11.3331
▁username	-11.3331
▁1993	-11.3331
▁negotiations	-11.3331
長	-11.3331
▁Store	-11.3331
▁tyre	-11.3331
▁participating	-11.3331
▁troll	-11.3331
▁Crowther	-11.3331
▁iteration	-11.3331
▁pythx	-11.3331
incontro	-11.3331
▁kullanımı	-11.3331
▁exemplo	-11.3331
▁offspring	-11.3331
▁prisão	-11.3331
▁Macron	-11.3331
▁Michelle	-11.3331
▁Trent	-11.3331
▁History	-11.3331
Neill	-11.3331
▁Battle	-11.3331
▁dropping	-11.3332
▁SNES	-11.3332
▁uncertain	-11.3332
▁stamp	-11.3332
▁Benny	-11.3332
▁variation	-11.3332
▁readiness	-11.3332
▁tubes	-11.3332
▁junior	-11.3332
▁sustainability	-11.3332
▁1996	-11.3332
人	-11.3333
▁Alvin	-11.3333
▁Marcel	-11.3333
▁buyback	-11.3333
▁Reality	-11.3333
▁Centre	-11.3333
▁minorities	-11.3333
▁Left	-11.3333
▁Ghost	-11.3334
▁grabb	-11.3334
▁Heroes	-11.3334
▁prolong	-11.3334
▁borrow	-11.3334
▁stopping	-11.3334
egen	-11.3334
▁Manager	-11.3334
▁parallel	-11.3334
▁dingoes	-11.3334
▁Christie	-11.3335
tained	-11.3335
▁Frase	-11.3335
▁Samid	-11.3335
▁diesel	-11.3335
▁Ancestry	-11.3335
▁quant	-11.3335
▁Block	-11.3335
▁uncover	-11.3335
▁evaluation	-11.3335
▁micro	-11.3335
▁calculation	-11.3336
▁dictator	-11.3336
▁hysteri	-11.3336
▁orcas	-11.3336
▁Nestlé	-11.3336
▁Priebus	-11.3336
▁System	-11.3336
▁Tlaib	-11.3336
▁blatant	-11.3336
▁cube	-11.3336
▁suspension	-11.3336
▁shall	-11.3336
▁snow	-11.3337
▁obstructive	-11.3337
▁taco	-11.3337
▁Actually	-11.3337
▁enrich	-11.3337
▁infant	-11.3337
▁playback	-11.3337
▁fazer	-11.3338
▁exam	-11.3338
▁airliner	-11.3338
▁Investigation	-11.3338
▁passado	-11.3339
▁consultation	-11.3339
▁Echo	-11.3339
fold	-11.3339
▁consultant	-11.334
endra	-11.334
▁Guti	-11.3341
▁Egyptian	-11.3341
▁SAM	-11.3341
▁Sight	-11.3342
▁APM	-11.3343
▁clothing	-11.3343
▁gameplay	-11.3344
▁oath	-11.3344
▁trials	-11.3344
▁pub	-11.3344
▁tiles	-11.3344
▁prote	-11.3344
▁interpret	-11.3345
▁Sie	-11.3345
▁max	-11.3345
▁restorati	-11.3345
▁commentary	-11.3345
▁routine	-11.3345
▁feat	-11.3345
MBUS	-11.3345
▁Race	-11.3346
▁institutional	-11.3346
rray	-11.3346
akta	-11.3347
▁login	-11.3347
▁Community	-11.3347
▁authoritarian	-11.3347
▁collision	-11.3347
▁última	-11.3347
▁Bundes	-11.3347
▁mushrooms	-11.3348
▁Bradley	-11.3348
▁NJ	-11.3348
▁penal	-11.3349
▁loyal	-11.3349
▁Bang	-11.3349
▁outlaw	-11.3349
▁15%	-11.335
▁patches	-11.3351
▁partially	-11.3351
▁hail	-11.3353
▁Labor	-11.3354
▁Living	-11.3356
▁Cory	-11.3356
▁Robertson	-11.3357
▁greve	-11.3358
▁Gold	-11.3358
▁prevention	-11.3358
▁nominated	-11.3358
▁burden	-11.3359
▁Austin	-11.3359
▁expos	-11.336
▁dust	-11.336
iber	-11.336
▁schepen	-11.336
enza	-11.3361
▁Forum	-11.3361
▁supplier	-11.3362
▁chopp	-11.3362
▁Stra	-11.3364
▁mold	-11.3364
▁welcome	-11.3364
▁matches	-11.3364
▁Sara	-11.3366
▁Hope	-11.3366
▁startup	-11.3367
▁collectively	-11.3369
▁essere	-11.3369
rak	-11.3369
▁inconsistent	-11.3369
▁grid	-11.337
▁Iraqi	-11.3371
▁eligib	-11.3371
felons	-11.3371
▁emphasized	-11.3372
▁invent	-11.3372
▁terrorism	-11.3373
▁bout	-11.3373
▁DE	-11.3374
▁zur	-11.3374
▁Sabr	-11.3375
▁77	-11.3375
▁criticis	-11.3375
▁Film	-11.3376
▁restored	-11.3377
▁Fear	-11.3377
▁Guy	-11.3378
Mi	-11.3378
▁Node	-11.3379
▁FO	-11.3381
mond	-11.3382
▁Box	-11.3383
file	-11.3384
▁Plann	-11.3385
cast	-11.3386
▁marks	-11.3386
▁runner	-11.3387
▁comic	-11.3388
▁renewed	-11.3388
▁commissioner	-11.3389
NS	-11.3392
▁recused	-11.3395
▁executed	-11.3397
▁cup	-11.3399
▁troubled	-11.3399
▁spe	-11.3401
▁${	-11.3405
▁honestly	-11.3406
▁mesi	-11.3406
ker	-11.341
▁Officer	-11.3411
anza	-11.3411
▁Nicola	-11.3413
▁Panthers	-11.3413
▁premiums	-11.3413
▁proponents	-11.3413
▁refin	-11.3414
teria	-11.3416
▁Tale	-11.3419
▁pastor	-11.3419
area	-11.342
▁sheet	-11.3425
▁fruit	-11.3428
▁Lava	-11.3428
▁depth	-11.3428
▁Ron	-11.3431
▁violated	-11.3432
▁seque	-11.3433
▁handled	-11.3433
▁linear	-11.3434
▁morally	-11.3435
▁Holy	-11.3437
udi	-11.344
▁stem	-11.3441
awful	-11.3441
▁ebooks	-11.3446
▁safeguards	-11.3446
▁Hispanics	-11.3446
▁FC	-11.3446
rrez	-11.3452
▁bombing	-11.3456
▁struggled	-11.3459
CC	-11.3461
rsi	-11.3464
hor	-11.3467
▁trata	-11.3467
▁delivery	-11.3468
itting	-11.3469
▁2013.	-11.3471
▁shirt	-11.3474
▁conservatives	-11.3474
▁exclude	-11.3476
CP	-11.3476
ón	-11.3478
▁antibiotics	-11.3479
▁shell	-11.3484
▁explor	-11.3484
▁revealing	-11.3484
▁separated	-11.3485
▁hemp	-11.3486
л	-11.3487
úd	-11.3487
▁01	-11.3488
▁covers	-11.3492
▁continual	-11.3495
▁mono	-11.3495
▁Rosa	-11.3502
▁Op	-11.3506
ainstream	-11.3507
их	-11.3508
▁gains	-11.3508
▁onde	-11.3511
▁mechanisms	-11.3513
▁ruin	-11.352
▁soil	-11.3521
▁pois	-11.3524
▁san	-11.3528
▁capitalism	-11.353
▁Ward	-11.3532
▁mammal	-11.3533
▁concentrate	-11.3537
▁reforms	-11.354
ously	-11.3541
▁projection	-11.3544
▁Friends	-11.3545
▁interventions	-11.3546
▁Stat	-11.3548
▁blades	-11.3548
▁centraliz	-11.3549
▁DeAn	-11.3554
▁graphic	-11.3555
▁AG	-11.3555
you	-11.3561
▁picks	-11.357
▁jet	-11.3573
▁organisations	-11.3579
▁peer	-11.3579
▁circles	-11.358
▁deter	-11.3581
count	-11.3581
antes	-11.3582
,300	-11.3585
▁expanded	-11.3591
▁crossed	-11.3592
▁Non	-11.3595
▁construct	-11.3596
yor	-11.3599
▁mal	-11.3608
34	-11.3608
omb	-11.3622
▁sull	-11.3626
▁Het	-11.3629
▁Ax	-11.363
Pa	-11.3631
▁costly	-11.3632
▁tweeting	-11.3638
▁impedi	-11.3639
bus	-11.3642
urious	-11.3643
4%	-11.3643
то	-11.3648
mate	-11.3649
▁sing	-11.3649
▁VR	-11.3653
enden	-11.3658
▁Det	-11.366
▁infield	-11.3668
▁hatte	-11.368
▁hosting	-11.3681
▁gi	-11.3688
▁admits	-11.369
▁concludes	-11.369
▁pile	-11.3691
▁lu	-11.3695
▁persons	-11.3705
▁liberals	-11.3708
03	-11.3715
▁explica	-11.3723
▁processo	-11.3734
▁outlines	-11.3734
most	-11.3742
ли	-11.3746
%)	-11.3751
▁(6	-11.3751
gun	-11.3763
prov	-11.3763
ield	-11.3767
▁freely	-11.3773
63	-11.3778
ità	-11.3781
▁Lei	-11.3786
▁simulat	-11.3794
▁salt	-11.3796
▁tie	-11.3811
▁Bea	-11.3812
▁popp	-11.3823
▁bears	-11.3827
ien	-11.3828
eek	-11.3832
▁dated	-11.3832
▁revolve	-11.3834
▁cultures	-11.3841
cio	-11.3855
poul	-11.3857
▁Anne	-11.3858
ø	-11.3861
▁197	-11.3865
▁Bur	-11.3865
▁Grad	-11.3868
▁answered	-11.3868
ril	-11.3869
dig	-11.387
62	-11.3872
fect	-11.3875
▁69	-11.3875
▁dit	-11.388
09	-11.3884
▁regulators	-11.3885
jar	-11.3885
ories	-11.3887
▁stocks	-11.3887
▁Cre	-11.3894
▁Fan	-11.3895
▁persone	-11.39
▁ami	-11.39
▁eu	-11.3901
bent	-11.3901
▁defenders	-11.3902
TE	-11.3902
▁aura	-11.3904
anne	-11.392
▁appointments	-11.3922
▁Elections	-11.3922
ational	-11.3923
▁Mal	-11.3933
▁hearts	-11.3945
tier	-11.3952
▁rivals	-11.3957
▁revenues	-11.3957
ClientRepository	-11.3957
ique	-11.3958
▁starr	-11.3958
gy	-11.3961
DS	-11.3965
▁conte	-11.3973
▁Min	-11.3983
cyb	-11.3986
▁Unit	-11.3988
Mail	-11.3988
▁legalize	-11.3996
▁debat	-11.4005
▁queue	-11.4008
▁$29	-11.4012
▁Yo	-11.4014
ht	-11.4014
▁Beau	-11.4019
lem	-11.4019
cess	-11.4029
▁Product	-11.4034
▁horrifi	-11.4036
▁inspire	-11.4037
azione	-11.404
▁Chi	-11.4043
▁focuse	-11.4046
▁$25	-11.405
▁landed	-11.4054
elt	-11.4055
Mayor	-11.4055
vio	-11.406
ither	-11.406
▁temperatures	-11.4062
▁themes	-11.4066
▁inex	-11.4069
▁decis	-11.407
▁IT	-11.4074
ison	-11.4075
rier	-11.4076
6,000	-11.4082
vec	-11.4084
▁exonerate	-11.4101
!'	-11.4105
dur	-11.4106
▁acce	-11.4111
larda	-11.4112
▁daughters	-11.4133
では	-11.4137
▁tar	-11.4143
▁Nel	-11.4145
▁fla	-11.415
CV	-11.415
▁Nov	-11.416
▁Ford	-11.4163
▁gate	-11.4165
▁scream	-11.4177
▁36	-11.419
ole	-11.4191
▁filmed	-11.4203
▁Del	-11.4206
▁chains	-11.4211
▁wings	-11.4211
agen	-11.4212
▁Cu	-11.4224
mise	-11.4227
stand	-11.4231
arez	-11.4233
▁scenarios	-11.4239
▁Maria	-11.4249
▁defin	-11.4258
TP	-11.4263
IP	-11.4268
87	-11.4274
roy	-11.4278
▁Ric	-11.4286
zie	-11.4288
▁sleeve	-11.4295
▁Finn	-11.4296
▁Economic	-11.4296
▁partnership	-11.4298
▁Roger	-11.4298
▁republican	-11.4305
▁lightsaber	-11.4306
▁circle	-11.4307
▁shark	-11.431
▁skin	-11.4313
connected	-11.4315
▁colleague	-11.4315
▁reactor	-11.4316
▁Andrea	-11.4317
▁interaction	-11.4319
▁suggestion	-11.432
▁sample	-11.4321
▁theater	-11.4323
▁publisher	-11.4324
▁Sport	-11.4324
OR	-11.4326
▁Steven	-11.433
▁persist	-11.4331
▁anos	-11.4338
vor	-11.434
▁organisation	-11.4356
▁Ze	-11.4362
▁Bad	-11.4364
pul	-11.4371
▁egg	-11.4375
lene	-11.4375
▁spo	-11.4378
▁Plan	-11.4383
▁bull	-11.4396
▁danc	-11.4405
▁blam	-11.4408
tions	-11.441
▁cal	-11.4412
scape	-11.4418
▁scam	-11.4419
▁Nationals	-11.4419
▁audiences	-11.442
▁publish	-11.4423
▁Gra	-11.4425
▁momento	-11.4428
▁dig	-11.4429
look	-11.4438
▁virtu	-11.4438
▁lit	-11.4439
mann	-11.444
▁declin	-11.4442
▁Cl	-11.4444
▁replac	-11.4444
token	-11.4445
ordinary	-11.4448
▁nem	-11.446
ache	-11.4467
▁Marine	-11.4469
▁races	-11.447
う	-11.4474
▁Ker	-11.4477
▁Mont	-11.4479
craft	-11.4483
▁Petro	-11.4483
esare	-11.4483
leading	-11.4484
designate	-11.4484
É	-11.4484
Unfortunately	-11.4485
snap	-11.4485
liberal	-11.4485
▁decreas	-11.4485
Brexit	-11.4485
Tech	-11.4485
earth	-11.4485
dynamic	-11.4485
Deep	-11.4485
Primitive	-11.4486
speaking	-11.4486
effective	-11.4487
atta	-11.4487
target	-11.4487
giving	-11.4487
strong	-11.4487
State	-11.4487
third	-11.4487
▁Name	-11.4488
last	-11.4488
Mueller	-11.4489
After	-11.4489
total	-11.449
▁Har	-11.449
forward	-11.4491
deep	-11.4493
▁bees	-11.4495
Ur	-11.4495
▁ally	-11.45
could	-11.4501
▁riot	-11.4503
hould	-11.4504
draft	-11.4505
▁tag	-11.4508
illiseconds	-11.4508
▁incomes	-11.4509
▁exhibit	-11.4514
▁neglect	-11.4516
▁figur	-11.4516
▁ensu	-11.4517
ecek	-11.4518
His	-11.4518
▁verdade	-11.4525
stage	-11.4526
▁skip	-11.4527
▁Jam	-11.4535
▁Electri	-11.4536
▁choos	-11.4537
Up	-11.4541
▁visits	-11.4541
usion	-11.4541
▁reward	-11.4544
▁apologize	-11.4547
▁diff	-11.4548
▁declare	-11.4549
▁approve	-11.4549
true	-11.4549
rative	-11.4552
▁popul	-11.4556
▁alleg	-11.4557
licious	-11.4559
▁extraordinar	-11.4562
▁AP	-11.4562
key	-11.4565
▁outrage	-11.4567
▁evolve	-11.4571
▁deposit	-11.4571
▁glass	-11.4572
▁grab	-11.4576
▁süre	-11.4576
▁exerc	-11.4576
▁possibil	-11.4576
sphere	-11.458
▁Arriola	-11.458
▁Tweet	-11.458
▁manhunt	-11.458
▁perpetrat	-11.458
▁tercih	-11.458
▁что	-11.458
Edelweiss	-11.458
Scaccetti	-11.458
Sissi	-11.458
amanpuri	-11.458
vmPFC	-11.458
▁Accenture	-11.458
▁Ambassador	-11.458
▁Apparently	-11.458
▁Archuleta	-11.458
▁Article	-11.458
▁Bangladesh	-11.458
▁Bismarck	-11.458
▁Botox	-11.458
▁Brambilla	-11.458
▁Bullock	-11.458
▁Buttegieg	-11.458
▁Cessna	-11.458
▁Clevenger	-11.458
▁Credit	-11.458
▁Edinburgh	-11.458
▁Fnatic	-11.458
▁Foxconn	-11.458
▁Horgan	-11.458
▁Investigators	-11.458
▁Javascript	-11.458
▁Joyner	-11.458
▁Khashoggi	-11.458
▁Kraken	-11.458
▁Mandalorian	-11.458
▁McCarthy	-11.458
▁McInnes	-11.458
▁Medvedchuk	-11.458
▁Murphy	-11.458
▁Museum	-11.458
▁Origin	-11.458
▁Pathfinder	-11.458
▁Premier	-11.458
▁Saskatchewan	-11.458
▁Savage	-11.458
▁Sullivan	-11.458
▁Turpin	-11.458
▁Vilnius	-11.458
▁Windows	-11.458
▁Yankees	-11.458
▁addiction	-11.458
▁caucus	-11.458
▁circumvent	-11.458
▁clause	-11.458
▁constituents	-11.458
▁cortex	-11.458
▁credentials	-11.458
▁cyclist	-11.458
▁devkit	-11.458
▁dynast	-11.458
▁extension	-11.458
▁fashion	-11.458
▁fulfill	-11.458
▁homophobic	-11.458
▁industries	-11.458
▁için	-11.458
▁loophole	-11.458
▁narrator	-11.458
▁outbreak	-11.458
▁paciente	-11.458
▁patrimoine	-11.458
▁patrons	-11.458
▁plaintiffs	-11.458
▁predecessor	-11.458
▁pregnant	-11.458
▁protagonist	-11.458
▁shadow	-11.458
▁speculation	-11.458
▁subsidies	-11.458
▁uygun	-11.458
▁vintage	-11.458
️	-11.458
ю	-11.458
▁Akçay	-11.458
▁Challenge	-11.458
▁HERE	-11.458
▁NATO	-11.458
▁bizarre	-11.458
▁clarify	-11.458
▁invasion	-11.458
▁ministry	-11.458
▁packaging	-11.458
▁resonate	-11.458
▁warrior	-11.458
▁Faith	-11.458
▁Petrobras	-11.458
▁adviseurs	-11.458
▁nieuw	-11.458
▁regain	-11.458
MeToo	-11.458
▁Cohn	-11.458
▁Martinez	-11.458
▁Messi	-11.458
▁brutal	-11.458
▁closing	-11.458
▁empir	-11.458
▁impressed	-11.458
▁inherent	-11.458
▁mutual	-11.458
Pelly	-11.458
▁Vegas	-11.458
▁resume	-11.458
▁shelter	-11.458
READ	-11.458
▁mystery	-11.458
放送	-11.458
▁augment	-11.458
▁sécurité	-11.458
▁generous	-11.458
▁identification	-11.458
▁steep	-11.458
▁swarm	-11.458
▁wurde	-11.458
ボルト	-11.458
▁catastrophe	-11.458
▁partij	-11.458
▁Design	-11.458
▁multiplayer	-11.458
▁società	-11.458
▁flexible	-11.458
▁Housing	-11.458
▁CGI	-11.458
▁lesbian	-11.458
▁refugee	-11.458
▁royal	-11.458
▁delegacia	-11.458
hashtag	-11.458
▁Mental	-11.458
▁despair	-11.458
▁Racing	-11.458
▁abbia	-11.458
▁restoring	-11.458
▁True	-11.458
▁griev	-11.458
▁hockey	-11.458
▁blunt	-11.458
▁Witch	-11.458
▁Value	-11.458
▁Delhi	-11.458
▁$1.8	-11.458
▁Salah	-11.458
▁Pitt	-11.458
ア	-11.458
▁anchor	-11.458
▁swath	-11.458
▁Trek	-11.458
▁electors	-11.458
▁gym	-11.458
▁inequality	-11.458
▁reckless	-11.458
く	-11.458
▁nonetheless	-11.458
▁possibilities	-11.458
▁capability	-11.458
▁bench	-11.458
▁investimento	-11.458
▁attachment	-11.458
▁scoop	-11.458
▁obligation	-11.4581
▁uncertainty	-11.4581
事	-11.4581
▁confusion	-11.4581
▁distract	-11.4581
▁cerca	-11.4581
▁muito	-11.4581
▁interior	-11.4581
▁ideological	-11.4581
▁congresswoman	-11.4581
▁recycling	-11.4581
▁Geant	-11.4581
▁bitcoin	-11.4581
▁clash	-11.4581
▁probability	-11.4581
▁Marshall	-11.4581
▁pizza	-11.4581
▁Holder	-11.4581
▁Mankey	-11.4581
▁OAuth	-11.4581
▁Thing	-11.4581
▁characteristics	-11.4581
▁therapist	-11.4581
▁fool	-11.4581
▁Prediction	-11.4581
▁Tube	-11.4581
▁premenstru	-11.4581
▁embassy	-11.4581
▁Journalists	-11.4581
▁investigação	-11.4582
▁diagnostic	-11.4582
▁Danny	-11.4582
▁yield	-11.4582
▁determinou	-11.4582
▁ironic	-11.4582
▁boring	-11.4582
▁hoje	-11.4582
gelis	-11.4582
▁exploration	-11.4582
ない	-11.4583
▁interpretation	-11.4583
▁Overall	-11.4583
▁commentator	-11.4583
▁marketplace	-11.4583
ansas	-11.4583
▁underflow	-11.4583
▁skeleton	-11.4583
HIS	-11.4583
▁migration	-11.4583
▁Sharon	-11.4583
Enable	-11.4583
▁Room	-11.4583
▁Arena	-11.4584
▁priorities	-11.4584
▁além	-11.4584
▁excessive	-11.4584
▁Paper	-11.4584
▁steel	-11.4584
▁overwhelmed	-11.4584
▁Chile	-11.4585
▁Marxist	-11.4585
▁subscribers	-11.4585
▁undertake	-11.4586
▁Adaptation	-11.4586
▁molt	-11.4586
▁attendance	-11.4586
▁prospective	-11.4586
▁cache	-11.4586
▁MMS	-11.4587
▁tribe	-11.4587
▁ragazze	-11.4587
Bisons	-11.4587
▁accompanie	-11.4587
▁Brayden	-11.4587
▁Mykonos	-11.4587
▁ambitious	-11.4587
▁compensation	-11.4587
▁Donoghue	-11.4587
▁sail	-11.4587
▁curl	-11.4588
▁indicted	-11.4588
▁1940	-11.4588
▁Text	-11.4588
▁política	-11.4588
cell	-11.4588
heart	-11.4588
▁Sorry	-11.4589
totalitarian	-11.4589
▁medida	-11.459
▁Rho	-11.459
▁entries	-11.459
▁avert	-11.4591
brid	-11.4591
▁legitima	-11.4592
▁considerably	-11.4592
▁Nature	-11.4592
▁harassed	-11.4592
▁50,000	-11.4592
▁occasionally	-11.4592
▁row	-11.4593
▁comparable	-11.4593
▁Never	-11.4593
▁fastest	-11.4594
▁depress	-11.4595
▁captain	-11.4595
stellen	-11.4595
▁echoes	-11.4595
▁Daten	-11.4596
▁Donation	-11.4597
gress	-11.4598
▁ERA	-11.4598
▁tiene	-11.4598
▁representation	-11.4599
▁wrestling	-11.46
▁Together	-11.46
▁evident	-11.46
▁premature	-11.46
▁Ivanka	-11.46
▁downplay	-11.46
▁Recently	-11.4601
▁quietly	-11.4601
▁performers	-11.4601
▁bold	-11.4602
▁populista	-11.4602
▁seja	-11.4602
▁problematic	-11.4602
▁App	-11.4602
▁Maul	-11.4602
▁weekday	-11.4603
▁rejection	-11.4603
▁Nothing	-11.4603
▁departments	-11.4604
▁Natural	-11.4604
▁contributor	-11.4605
▁poet	-11.4605
▁Como	-11.4606
▁sky	-11.4606
▁removal	-11.4606
▁plausible	-11.4608
▁deliberately	-11.4608
▁blo	-11.4608
▁Susan	-11.4608
▁substitute	-11.4609
▁Lala	-11.4609
▁10%	-11.461
▁$1.5	-11.4611
▁verify	-11.4612
▁inflict	-11.4613
▁Space	-11.4614
▁PGR	-11.4615
▁shit	-11.4615
▁buyers	-11.4616
▁neck	-11.4616
amin	-11.4617
▁scared	-11.4617
▁scripted	-11.4618
▁Russiagate	-11.4618
▁Newton	-11.4619
▁Action	-11.4619
▁Poll	-11.462
▁void	-11.4621
▁vra	-11.4623
▁desta	-11.4624
▁regulated	-11.4625
▁panic	-11.4625
▁insufficient	-11.4625
IM	-11.4625
▁lifetime	-11.4625
▁Gang	-11.4626
▁fold	-11.4626
▁communist	-11.4626
▁hood	-11.4627
▁verband	-11.4628
▁reply	-11.4628
CK	-11.4628
▁decent	-11.4629
akot	-11.4629
▁Maid	-11.4631
▁deste	-11.4632
shap	-11.4632
lige	-11.4632
▁questionable	-11.4633
▁ease	-11.4633
▁canceled	-11.4634
▁locked	-11.4634
eckless	-11.4636
▁externa	-11.4637
▁calculated	-11.4637
▁Italia	-11.4639
dated	-11.4639
tijd	-11.4639
▁sixth	-11.4639
Gen	-11.4639
▁PG	-11.464
▁infamous	-11.4642
▁depart	-11.4642
date	-11.4643
▁$1.7	-11.4645
▁survived	-11.4646
ся	-11.4646
▁(13	-11.4649
▁HT	-11.465
▁anticipated	-11.465
▁suspended	-11.465
▁$1.1	-11.4652
▁PS	-11.4652
▁『	-11.4652
ope	-11.4657
▁coaches	-11.466
atory	-11.4661
▁Prof	-11.4663
▁tape	-11.4666
▁partial	-11.4666
▁Bear	-11.4667
▁FF	-11.4668
▁commander	-11.4671
▁Barbar	-11.4671
▁famously	-11.4674
▁statute	-11.4674
vie	-11.4674
▁measurements	-11.4675
evertheless	-11.4675
▁incum	-11.4677
omething	-11.4678
ntro	-11.4679
▁incentiv	-11.468
▁chin	-11.468
▁Gilm	-11.4685
▁capi	-11.4688
▁Paulo	-11.4691
▁teaching	-11.4692
▁hanging	-11.4697
▁dip	-11.4698
best	-11.4698
macht	-11.4699
▁crafted	-11.4701
▁AFP	-11.4705
▁dice	-11.4706
▁Benj	-11.4707
▁achieved	-11.4709
▁solo	-11.4713
▁sooner	-11.4713
▁defendants	-11.4714
▁sle	-11.4715
▁marca	-11.4717
▁disappeared	-11.4717
▁rage	-11.4718
▁condi	-11.4719
▁fare	-11.4722
▁pharmac	-11.4725
▁spoken	-11.4725
▁realiza	-11.4726
▁VI	-11.4726
fact	-11.4729
▁soul	-11.4729
▁Rud	-11.4732
▁($	-11.4734
▁leden	-11.4734
netz	-11.4736
▁laughing	-11.4739
▁Hu	-11.4743
▁screens	-11.4743
facebook	-11.4747
▁imagined	-11.4748
-48	-11.4749
▁belonging	-11.4749
▁Prosecutors	-11.4751
▁towers	-11.4753
SDA	-11.4754
92	-11.4754
hangi	-11.4759
▁Players	-11.476
▁Mel	-11.4761
▁lease	-11.4761
▁clinical	-11.4763
や	-11.4764
▁deadly	-11.4764
▁sam	-11.4768
-10	-11.477
▁suo	-11.4773
▁Skeleton	-11.4775
▁bei	-11.4775
lva	-11.4777
▁ref	-11.4782
▁existe	-11.4783
▁wi	-11.4783
▁euro	-11.4783
▁liver	-11.4784
▁frogs	-11.4789
▁competitors	-11.4789
reby	-11.479
▁consum	-11.4793
▁fighters	-11.4797
▁wise	-11.4798
story	-11.4798
▁Mint	-11.4803
▁poder	-11.4807
trust	-11.4813
▁wa	-11.4817
Cair	-11.4817
iate	-11.4818
▁Uni	-11.4819
▁challenged	-11.482
▁decriminaliz	-11.4825
▁outlin	-11.4825
may	-11.4829
▁Tr	-11.4832
▁summariz	-11.4837
dan	-11.484
/2019	-11.4847
ative	-11.4848
▁privately	-11.4854
2)	-11.4855
▁sells	-11.4855
▁insider	-11.4857
▁interfer	-11.4862
Of	-11.4864
nho	-11.487
change	-11.488
▁riding	-11.4882
▁scr	-11.4883
hard	-11.4885
big	-11.4898
▁Tu	-11.4899
rais	-11.4899
▁occasions	-11.4901
▁emit	-11.4901
▁alerts	-11.4904
▁mountains	-11.4904
▁manufacturers	-11.4905
ICE	-11.4905
▁dump	-11.4906
▁RB	-11.4906
▁obstructing	-11.4912
api	-11.4913
▁540	-11.4922
▁desp	-11.4929
night	-11.493
▁farming	-11.4932
▁tea	-11.4933
29	-11.4933
fill	-11.4934
▁legally	-11.494
▁Seg	-11.494
▁newsletters	-11.4943
▁Set	-11.4944
▁undergo	-11.4947
но	-11.4955
inous	-11.4956
▁staffers	-11.4962
ani	-11.4967
▁traveled	-11.4969
▁$100	-11.4977
▁jailed	-11.4981
▁franchises	-11.4982
▁restaurants	-11.4982
▁volunteers	-11.4982
ま	-11.4982
▁Nations	-11.4983
▁acknowledges	-11.4987
▁centers	-11.4991
56	-11.4994
affective	-11.4997
prender	-11.4998
▁intentional	-11.5016
▁permitt	-11.5017
▁Bull	-11.5019
▁poses	-11.5024
▁genes	-11.5027
lais	-11.5027
ré	-11.5033
▁leftists	-11.5034
enas	-11.5043
▁settle	-11.5045
stop	-11.5048
fer	-11.5052
▁bestsell	-11.5054
▁parent	-11.5058
▁experiments	-11.5067
same	-11.5067
▁Too	-11.507
▁definite	-11.5073
ILE	-11.5074
▁intentions	-11.5076
▁routes	-11.51
lumb	-11.51
▁leaks	-11.51
ardo	-11.51
▁u	-11.5106
▁Pot	-11.5108
▁$14	-11.5117
▁decisiv	-11.5119
▁arrives	-11.5121
Service	-11.5121
iyor	-11.5121
▁LA	-11.5123
▁Rand	-11.5125
▁compromis	-11.5127
▁kom	-11.513
cz	-11.5135
▁publications	-11.514
llen	-11.5152
0.18	-11.5162
▁canon	-11.5163
▁threatens	-11.5166
PD	-11.5171
▁tricks	-11.5173
▁onder	-11.5175
▁aux	-11.5176
▁programmes	-11.5176
▁accelerate	-11.5179
isse	-11.5182
▁lent	-11.5188
▁lur	-11.5205
01	-11.5208
▁occurr	-11.5209
bel	-11.5212
rine	-11.5217
ır	-11.5218
tory	-11.5223
67	-11.5229
▁humane	-11.5232
▁scan	-11.5241
▁Hans	-11.5243
HP	-11.5245
▁Ap	-11.5249
▁voices	-11.5252
osas	-11.5273
▁luc	-11.5275
15	-11.5276
ização	-11.5278
volved	-11.5285
▁relian	-11.5287
▁wages	-11.5299
▁lib	-11.5306
ciona	-11.5309
▁Const	-11.5311
▁Rosen	-11.5311
46	-11.5323
▁Auth	-11.5332
ET	-11.5337
▁DO	-11.5338
▁imports	-11.534
pike	-11.5341
▁Jing	-11.5343
ebb	-11.5343
700	-11.5352
av	-11.5361
Sass	-11.5365
rso	-11.5367
▁histori	-11.5369
ility	-11.5377
▁vend	-11.5383
▁chairs	-11.5389
▁deve	-11.5398
DF	-11.5402
▁masters	-11.5409
▁$0.	-11.5416
icht	-11.5418
▁plates	-11.542
ensa	-11.5431
willingness	-11.5435
BI	-11.5435
ige	-11.5444
▁180	-11.545
atti	-11.5454
▁Sc	-11.5454
▁Transit	-11.5461
▁provinces	-11.5461
joined	-11.5461
▁relate	-11.5461
▁Log	-11.5464
nim	-11.5468
▁nau	-11.5474
kela	-11.5482
TER	-11.5483
▁hash	-11.5487
cap	-11.5489
▁hospitals	-11.549
UR	-11.5502
idad	-11.5503
▁scor	-11.5504
bl	-11.5515
pending	-11.5521
▁MIT	-11.554
▁reactions	-11.5544
cade	-11.5546
▁juic	-11.5559
▁trag	-11.557
▁flu	-11.5571
illion	-11.558
ensity	-11.5582
▁thrill	-11.5582
▁542	-11.5585
TA	-11.5597
ander	-11.56
▁landing	-11.5617
▁dreams	-11.5625
ona	-11.5636
yen	-11.5637
New	-11.564
ID	-11.564
8%	-11.564
▁pod	-11.5641
MMR	-11.5646
▁sits	-11.5663
▁$50	-11.5665
▁outcomes	-11.5667
rnell	-11.5676
▁hacks	-11.5677
talk	-11.5687
▁fee	-11.5687
away	-11.5696
▁Come	-11.5698
nada	-11.5715
iden	-11.572
MP	-11.5725
▁crystal	-11.5725
▁surge	-11.5726
▁Record	-11.5726
▁arrangement	-11.5727
▁amphibian	-11.5728
▁SSD	-11.5728
▁indicator	-11.5732
▁predator	-11.5734
ium	-11.5734
▁Friend	-11.5735
▁relation	-11.5736
▁contender	-11.5739
▁owe	-11.5741
▁intervention	-11.5741
ska	-11.5742
▁symptom	-11.5742
▁exit	-11.5754
▁Thu	-11.5755
▁trait	-11.5765
▁manages	-11.5769
leri	-11.577
▁ripp	-11.577
▁Ban	-11.5771
те	-11.5773
▁Brave	-11.5775
▁kid	-11.5778
▁qua	-11.5778
direct	-11.578
ycling	-11.5781
▁blade	-11.5783
ducing	-11.5784
▁Gau	-11.5789
iere	-11.579
▁Nav	-11.5803
▁org	-11.5808
▁bot	-11.5809
CT	-11.5809
lee	-11.5817
▁cinema	-11.5823
▁planets	-11.5824
▁Khal	-11.5824
EA	-11.5827
ffairs	-11.5831
ios	-11.5831
rtificial	-11.5831
▁subpoenas	-11.5834
ни	-11.5836
▁advanc	-11.5836
▁57	-11.5842
uta	-11.5845
▁acknowledg	-11.5852
esi	-11.5852
ы	-11.5856
sburg	-11.586
▁varia	-11.5864
ologist	-11.5869
▁Schul	-11.5871
▁misle	-11.5872
5000	-11.5883
▁parliamentar	-11.5886
▁(-4	-11.5888
–––––––––––––––+	-11.5893
▁4-	-11.5897
worth	-11.59
easteading	-11.5903
pet	-11.5904
▁execut	-11.5905
▁welcom	-11.5907
${	-11.5911
product	-11.5912
lement	-11.5913
String	-11.5914
Nazi	-11.5915
tress	-11.5915
historic	-11.5915
breaking	-11.5915
quarter	-11.5915
Those	-11.5915
original	-11.5916
service	-11.5916
leader	-11.5916
help	-11.5916
President	-11.5916
God	-11.5916
http	-11.5916
second	-11.5916
from	-11.5916
burn	-11.5917
larges	-11.5917
close	-11.5917
However	-11.5917
three	-11.5918
represent	-11.5918
Fox	-11.5919
Mass	-11.5919
normal	-11.5922
sharing	-11.5923
▁Custom	-11.5928
plant	-11.5929
ronically	-11.5936
Game	-11.5938
American	-11.5938
Marc	-11.5938
traction	-11.594
▁fad	-11.5941
▁cancel	-11.5945
Kayla	-11.5951
yı	-11.5952
hild	-11.5958
▁Bren	-11.5959
▁loose	-11.5961
went	-11.5962
▁flee	-11.5962
▁contradict	-11.5966
assemble	-11.5968
▁Franc	-11.5969
volution	-11.5971
▁bil	-11.5971
▁regret	-11.5972
▁subscrib	-11.5975
waiting	-11.5976
▁Pet	-11.5976
▁bigot	-11.5976
▁convince	-11.5977
▁assure	-11.5978
▁criticize	-11.598
▁deploy	-11.598
▁Bett	-11.5982
▁Corp	-11.5984
▁Character	-11.5984
▁advertise	-11.5986
▁Recent	-11.5987
▁quiet	-11.599
▁slip	-11.5991
▁desert	-11.5991
▁Libert	-11.5991
▁intervene	-11.5993
▁emphasize	-11.5993
El	-11.5994
giLD	-11.5994
cost	-11.5995
ssembly	-11.5997
▁maggio	-11.5997
▁Dogma	-11.5997
▁escalat	-11.5997
▁earlie	-11.5999
▁convict	-11.5999
ло	-11.6
▁faze	-11.6002
▁corre	-11.6002
▁trail	-11.6003
▁comme	-11.6003
▁correlat	-11.6003
▁declara	-11.6004
▁inclu	-11.6005
▁erkekler	-11.6005
▁divulga	-11.6006
▁Transport	-11.6006
ASH	-11.6007
dominant	-11.6007
eautiful	-11.6007
▁fabric	-11.6007
pecifically	-11.6007
ル	-11.6008
分	-11.6008
Universit	-11.6008
Famili	-11.6008
▁scrutiniz	-11.6008
во	-11.6008
▁garbage	-11.6008
▁resurrect	-11.6008
▁skyrocket	-11.6008
Buzzfeed	-11.6008
enburg	-11.6008
ţ	-11.6008
▁Advance	-11.6008
▁Afghan	-11.6008
▁Agrawal	-11.6008
▁Agreement	-11.6008
▁Arrakis	-11.6008
▁Ballapuram	-11.6008
▁Bürgerschaft	-11.6008
▁Consider	-11.6008
▁Curitiba	-11.6008
▁Demirtas	-11.6008
▁Emergenc	-11.6008
▁Eskimos	-11.6008
▁Flint	-11.6008
▁Ignite	-11.6008
▁Iwamoto	-11.6008
▁Kabul	-11.6008
▁Kibana	-11.6008
▁LeBlanc	-11.6008
▁Malaysia	-11.6008
▁Martsinkevich	-11.6008
▁Matthew	-11.6008
▁McCabe	-11.6008
▁McFarland	-11.6008
▁Mendoza	-11.6008
▁Middlebury	-11.6008
▁Mississippi	-11.6008
▁Moldbug	-11.6008
▁Morsky	-11.6008
▁Mutants	-11.6008
▁NVMe	-11.6008
▁Neptune	-11.6008
▁Newfoundland	-11.6008
▁Nicaragua	-11.6008
▁Pawtucket	-11.6008
▁PewDiePie	-11.6008
▁Portugal	-11.6008
▁Prasad	-11.6008
▁RSPS	-11.6008
▁Reagan	-11.6008
▁Respond	-11.6008
▁Român	-11.6008
▁Russell	-11.6008
▁Sakura	-11.6008
▁Shadow	-11.6008
▁Shrubsole	-11.6008
▁Starbucks	-11.6008
▁Studios	-11.6008
▁Technologies	-11.6008
▁Telekom	-11.6008
▁Tennessee	-11.6008
▁Uzbekistan	-11.6008
▁Vancouver	-11.6008
▁Zealand	-11.6008
▁amigdalitis	-11.6008
▁ammunition	-11.6008
▁anonymity	-11.6008
▁beneficial	-11.6008
▁certification	-11.6008
▁clarity	-11.6008
▁communism	-11.6008
▁conjunto	-11.6008
▁consistency	-11.6008
▁credible	-11.6008
▁demographic	-11.6008
▁divisive	-11.6008
▁excitement	-11.6008
▁expropriat	-11.6008
▁faucet	-11.6008
▁financing	-11.6008
▁flourish	-11.6008
▁garner	-11.6008
▁genocide	-11.6008
▁iPhone	-11.6008
▁involuntario	-11.6008
▁kidnapping	-11.6008
▁licensing	-11.6008
▁maneuver	-11.6008
▁melhor	-11.6008
▁mortality	-11.6008
▁nonhuman	-11.6008
▁objetivo	-11.6008
▁pundits	-11.6008
▁rallied	-11.6008
▁rebuke	-11.6008
▁receipt	-11.6008
▁recipient	-11.6008
▁reliability	-11.6008
▁ricerca	-11.6008
▁sahip	-11.6008
▁sketch	-11.6008
▁sneak	-11.6008
▁supermercados	-11.6008
▁synthesis	-11.6008
▁uitkijk	-11.6008
▁vaccinated	-11.6008
▁vessels	-11.6008
▁último	-11.6008
sacrament	-11.6008
▁Adviser	-11.6008
▁Blake	-11.6008
▁Proudhon	-11.6008
▁REUTERS	-11.6008
▁Yeerk	-11.6008
▁combustíve	-11.6008
▁ethnic	-11.6008
▁frankly	-11.6008
▁grasp	-11.6008
▁inspiration	-11.6008
▁kunnen	-11.6008
▁livre	-11.6008
▁peasant	-11.6008
▁pseudo	-11.6008
▁reassur	-11.6008
▁refinarias	-11.6008
▁technological	-11.6008
▁triumph	-11.6008
▁watchdog	-11.6008
▁Aviv	-11.6008
▁Dvir	-11.6008
▁Gifted	-11.6008
▁Kiev	-11.6008
▁Morton	-11.6008
▁Summit	-11.6008
▁bruise	-11.6008
▁footsteps	-11.6008
▁også	-11.6008
▁replied	-11.6008
Military	-11.6008
ств	-11.6008
▁Palace	-11.6008
監	-11.6008
Application	-11.6008
Sebasti	-11.6008
▁AEG	-11.6008
▁Frog	-11.6008
▁abroad	-11.6008
▁affirm	-11.6008
▁intact	-11.6008
▁staple	-11.6008
▁superstitions	-11.6008
です	-11.6008
▁Adib	-11.6008
▁Perez	-11.6008
▁observations	-11.6008
▁GIFCT	-11.6008
▁Management	-11.6008
▁Reich	-11.6008
▁burst	-11.6008
▁denounc	-11.6008
▁erect	-11.6008
▁liability	-11.6008
▁Pike	-11.6008
▁bleach	-11.6008
▁Castle	-11.6008
▁laundering	-11.6008
▁ideia	-11.6008
▁nightmare	-11.6008
▁nostalgi	-11.6008
▁declaring	-11.6008
▁rebels	-11.6008
▁IEO	-11.6008
▁trilogy	-11.6008
▁funeral	-11.6008
▁LIGO	-11.6008
▁campagn	-11.6008
▁cellular	-11.6008
▁Tayang	-11.6008
▁Half	-11.6008
▁domain	-11.6008
▁Facility	-11.6008
グラディウス	-11.6008
今	-11.6008
▁Chesterton	-11.6008
▁Arctic	-11.6008
▁Besides	-11.6008
▁compris	-11.6008
▁penalties	-11.6008
▁cruel	-11.6008
▁Guard	-11.6008
▁extinction	-11.6008
▁litigation	-11.6008
▁STI	-11.6009
▁Tampa	-11.6009
び	-11.6009
▁positivo	-11.6009
▁guru	-11.6009
▁redesign	-11.6009
▁steelhead	-11.6009
▁nerve	-11.6009
▁Chinn	-11.6009
▁ruidos	-11.6009
▁Astros	-11.6009
▁Express	-11.6009
▁deported	-11.6009
▁residence	-11.6009
▁Inslee	-11.6009
▁screw	-11.6009
▁metabolism	-11.6009
▁SPLC	-11.6009
▁negotiating	-11.6009
▁shield	-11.6009
▁Graham	-11.6009
▁stint	-11.6009
▁hinder	-11.6009
▁taste	-11.6009
▁Combin	-11.6009
▁Charities	-11.6009
▁insurer	-11.6009
など	-11.6009
▁wellbeing	-11.6009
▁Indra	-11.6009
▁surpass	-11.6009
▁surplus	-11.6009
リ	-11.6009
▁Mendes	-11.6009
compensate	-11.6009
▁Gym	-11.6009
lkol	-11.6009
▁Partner	-11.6009
▁surreal	-11.6009
▁bribery	-11.6009
▁lieutenant	-11.6009
▁Gates	-11.6009
▁Parchi	-11.6009
▁Europa	-11.6009
▁cooperative	-11.6009
▁Section	-11.6009
▁Content	-11.6009
▁applies	-11.6009
▁municipal	-11.6009
▁fringe	-11.6009
コ	-11.6009
▁ordeal	-11.6009
▁incompetence	-11.6009
▁reception	-11.6009
▁agrees	-11.6009
▁WWE	-11.6009
▁tomorrow	-11.6009
▁Marxism	-11.6009
▁Bengal	-11.6009
ennial	-11.6009
▁Origen	-11.6009
▁Bryant	-11.6009
▁1984	-11.601
▁workshop	-11.601
▁stunt	-11.601
▁Endgame	-11.601
▁reconstruction	-11.601
▁litro	-11.601
▁Rift	-11.601
▁authenticate	-11.601
▁NOTE	-11.601
▁POTUS	-11.601
▁Infinity	-11.601
▁efficiency	-11.601
▁Orwell	-11.601
▁blast	-11.601
▁blackface	-11.601
▁Silva	-11.601
▁aveva	-11.601
▁superpower	-11.601
▁inference	-11.601
▁Vox	-11.601
▁riff	-11.601
▁Track	-11.601
▁midfield	-11.601
▁tariff	-11.601
▁Cube	-11.601
▁underwear	-11.601
▁trafficking	-11.601
▁Elastic	-11.6011
▁Orville	-11.6011
▁concentration	-11.6011
▁Comment	-11.6011
間	-11.6011
socia	-11.6011
miracle	-11.6011
uel	-11.6011
▁hateful	-11.6011
▁dystopian	-11.6011
▁zaman	-11.6011
▁relating	-11.6011
▁civilization	-11.6011
▁hazards	-11.6011
▁zit	-11.6011
▁tinha	-11.6011
▁overcome	-11.6011
etroleum	-11.6012
▁airport	-11.6012
▁billboard	-11.6012
▁magn	-11.6012
▁Doug	-11.6012
▁classification	-11.6012
▁NFC	-11.6012
▁Peterson	-11.6012
▁Farage	-11.6012
▁tune	-11.6012
▁Normal	-11.6012
▁touchdown	-11.6012
onetheless	-11.6013
▁painful	-11.6013
▁harmful	-11.6013
▁Silver	-11.6013
▁suppression	-11.6013
▁viewpoint	-11.6013
▁crush	-11.6013
▁Flash	-11.6013
▁decree	-11.6013
▁extradit	-11.6013
▁shipment	-11.6013
▁realistic	-11.6013
▁trustworthy	-11.6013
▁sake	-11.6013
▁1933	-11.6013
▁disagreement	-11.6014
▁tired	-11.6014
▁visitors	-11.6014
▁binge	-11.6014
▁buck	-11.6014
▁Death	-11.6014
▁Winter	-11.6015
▁poison	-11.6015
▁80%	-11.6015
▁Simpl	-11.6015
▁untrue	-11.6015
▁hostility	-11.6015
▁FOR	-11.6015
▁calculate	-11.6015
▁mythology	-11.6015
▁Equality	-11.6016
▁Generat	-11.6016
▁Emma	-11.6016
▁menace	-11.6016
▁curb	-11.6017
▁bait	-11.6017
▁1970	-11.6017
▁Industry	-11.6017
▁Kislyak	-11.6017
▁Mastercard	-11.6017
▁Vizcarra	-11.6017
▁Yahoo	-11.6017
▁graffiti	-11.6017
▁infinite	-11.6017
▁territorial	-11.6017
▁disaster	-11.6017
▁preferences	-11.6017
▁surgeon	-11.6017
▁biologist	-11.6017
▁Democracy	-11.6017
▁glasses	-11.6017
▁incentives	-11.6017
atomic	-11.6017
▁2030	-11.6017
▁Uhr	-11.6017
nız	-11.6018
▁participation	-11.6018
▁trash	-11.6018
▁Eisenberg	-11.6018
TAL	-11.6018
tención	-11.6018
▁Master	-11.6018
▁chasse	-11.6018
▁disable	-11.6018
irty	-11.6018
Breakthrough	-11.6019
▁endpoint	-11.6019
sinde	-11.6019
▁shelves	-11.6019
▁Landis	-11.6019
coin	-11.6019
▁headset	-11.6019
▁Kong	-11.6019
▁Jets	-11.602
Username	-11.602
▁passage	-11.602
▁overnight	-11.602
▁execution	-11.602
▁litera	-11.602
▁detective	-11.602
▁hub	-11.6021
▁enterprise	-11.6021
acak	-11.6021
▁Samus	-11.6022
▁reign	-11.6022
your	-11.6022
▁Letter	-11.6022
▁Audi	-11.6022
▁Jerr	-11.6023
▁direit	-11.6023
▁Heights	-11.6023
▁klar	-11.6023
▁strand	-11.6023
▁merch	-11.6023
▁Dogman	-11.6023
NE	-11.6023
▁frag	-11.6023
▁edil	-11.6025
▁Town	-11.6025
▁shortage	-11.6025
▁nuevo	-11.6025
▁retired	-11.6026
▁ingresar	-11.6026
▁dijo	-11.6026
▁disturbing	-11.6027
▁null	-11.6027
▁confused	-11.6027
▁cheaper	-11.6027
—“	-11.6028
▁yaşta	-11.6028
▁replay	-11.6029
▁Fair	-11.6029
reach	-11.603
▁drie	-11.6031
incendie	-11.6031
▁highway	-11.6032
▁Barcelona	-11.6032
▁PSNI	-11.6032
▁jacket	-11.6032
▁schip	-11.6032
▁Aaron	-11.6032
▁países	-11.6032
Greek	-11.6032
▁(1)	-11.6032
quez	-11.6033
▁Regardless	-11.6033
▁ecolog	-11.6033
ijn	-11.6033
▁unified	-11.6034
▁beeld	-11.6034
▁conspirator	-11.6034
▁killers	-11.6034
▁everyday	-11.6035
▁indi	-11.6035
▁Dave	-11.6036
▁Lunat	-11.6036
ough	-11.6036
eparation	-11.6037
▁68	-11.6038
▁fallout	-11.6038
metrics	-11.6038
▁beaten	-11.6039
▁10,000	-11.6039
▁nationalism	-11.604
pology	-11.604
▁direito	-11.604
▁rapidly	-11.6041
▁routinely	-11.6041
▁tama	-11.6041
▁accomplished	-11.6042
ulf	-11.6045
▁Tap	-11.6045
▁Myers	-11.6046
▁Volu	-11.6046
▁Crusoé	-11.6047
▁Prussian	-11.6047
OW	-11.6047
mpse	-11.6048
▁acud	-11.6048
▁inches	-11.6049
▁116	-11.605
▁filmmaker	-11.605
▁accessible	-11.6052
▁essa	-11.6052
▁KO	-11.6052
▁reimbursed	-11.6052
▁Late	-11.6052
▁Dog	-11.6053
▁leur	-11.6054
▁sway	-11.6054
▁impede	-11.6055
spirator	-11.6056
ummy	-11.6057
▁dug	-11.6058
▁punt	-11.6058
▁inappropriate	-11.6061
51	-11.6061
▁devote	-11.6062
▁Access	-11.6062
▁Anth	-11.6064
▁(12	-11.6065
▁kar	-11.6065
▁extensively	-11.6068
LIVE	-11.6068
▁cooperated	-11.6068
▁compos	-11.6069
▁greet	-11.6069
▁wat	-11.6069
isters	-11.6069
Monster	-11.607
▁Swan	-11.6071
▁"[	-11.6071
grund	-11.6071
itzk	-11.6072
▁seine	-11.6073
azam	-11.6073
▁rope	-11.6075
▁Carly	-11.6076
rono	-11.6076
▁diplomats	-11.6076
▁underestimat	-11.6078
▁к	-11.6079
ament	-11.608
▁assembled	-11.608
▁rewarded	-11.6081
▁shore	-11.6081
▁scramble	-11.6081
▁hy	-11.6082
▁campo	-11.6082
▁ALL	-11.6082
▁delight	-11.6082
▁hid	-11.6084
▁bow	-11.6085
Un	-11.6086
▁discovery	-11.6087
▁Cost	-11.609
▁lock	-11.609
▁professionals	-11.609
▁Harr	-11.609
▁redes	-11.609
MAG	-11.6091
▁unter	-11.6091
mitted	-11.6092
▁fist	-11.6093
▁lui	-11.6094
▁march	-11.6095
▁analyzed	-11.6096
wr	-11.6098
▁termist	-11.6099
zich	-11.6102
▁wir	-11.6102
▁gases	-11.6102
▁DER	-11.6105
egg	-11.6109
▁alta	-11.6112
▁TB	-11.6112
▁tempo	-11.6112
ül	-11.6114
▁county	-11.6114
▁torna	-11.6115
▁indirect	-11.6116
▁Mello	-11.6116
▁Gun	-11.6116
▁lungs	-11.6119
▁neighbors	-11.6119
▁eliminated	-11.612
▁Lucas	-11.612
▁turnout	-11.612
cid	-11.6122
▁disclosed	-11.6124
▁inbox	-11.6125
▁sleeping	-11.6126
▁Sure	-11.6127
lice	-11.6129
▁tur	-11.6129
▁conspir	-11.613
▁slippe	-11.6132
ciones	-11.6132
▁math	-11.6135
▁doom	-11.6135
▁mesh	-11.6137
▁Farm	-11.6138
▁assisted	-11.6139
▁collapsed	-11.614
▁Bir	-11.6143
▁shouting	-11.6147
legal	-11.6149
moot	-11.6149
▁mega	-11.6149
▁Hard	-11.6154
▁surfaced	-11.6155
▁helm	-11.6155
▁poorly	-11.6156
burgh	-11.6158
▁broadly	-11.616
▁competent	-11.616
▁críticas	-11.6163
amongst	-11.6164
▁teenagers	-11.6164
▁suite	-11.6167
▁faction	-11.6174
▁filler	-11.6174
▁infect	-11.6175
▁uz	-11.6176
▁Carr	-11.6177
▁spat	-11.6177
▁sand	-11.6178
▁sim	-11.6179
▁cord	-11.6184
▁sul	-11.6186
▁anni	-11.6192
actic	-11.6193
aries	-11.6193
rse	-11.6194
▁organizing	-11.6197
▁weighed	-11.6199
▁(+	-11.62
▁supporter	-11.6202
▁partir	-11.6203
News	-11.6205
▁morale	-11.6205
▁bind	-11.6207
▁Statistics	-11.6207
▁monsters	-11.6207
▁adjustments	-11.6207
arse	-11.6208
▁Wie	-11.6208
▁Patt	-11.6209
▁Rest	-11.621
▁tee	-11.6214
▁heredit	-11.6217
▁(16	-11.6222
▁indicat	-11.6225
ön	-11.623
▁camper	-11.6233
Commercial	-11.6237
▁Jaz	-11.6245
▁Almost	-11.6247
ijk	-11.6249
▁mill	-11.6251
zeit	-11.6251
Schule	-11.6251
▁savings	-11.6252
▁tensions	-11.6254
▁observers	-11.6255
▁shocking	-11.6256
▁Pha	-11.6257
▁staged	-11.6258
▁esto	-11.6263
▁Dor	-11.6263
ello	-11.6263
▁audit	-11.6263
▁recreation	-11.6268
ody	-11.6269
▁geni	-11.627
▁continu	-11.627
obby	-11.6273
▁financially	-11.6273
▁bust	-11.6274
fond	-11.6274
▁forma	-11.6277
▁hurting	-11.6282
▁logical	-11.6285
▁Care	-11.6288
▁Stan	-11.629
▁divers	-11.6293
▁WA	-11.6294
dragon	-11.6295
▁SSDs	-11.6297
▁indicators	-11.6297
▁contenders	-11.63
▁beach	-11.6306
▁murdered	-11.6307
▁referenced	-11.6307
early	-11.6307
suit	-11.6309
▁amphibians	-11.6313
▁Dwa	-11.6314
▁printed	-11.6316
▁mentioning	-11.6316
▁exc	-11.6321
slip	-11.6328
▁esp	-11.6332
1)	-11.6338
laring	-11.6341
▁「	-11.6342
▁skins	-11.6343
▁sap	-11.6346
▁LO	-11.6353
▁Fans	-11.6357
▁inner	-11.6362
▁laten	-11.6363
▁beside	-11.6366
▁crow	-11.637
his	-11.6371
ß	-11.6376
▁Form	-11.6376
▁characterize	-11.6376
▁Notabl	-11.6382
▁shells	-11.6383
ket	-11.6384
▁loans	-11.6387
▁PRO	-11.6389
▁Quest	-11.6391
▁chan	-11.6397
ATE	-11.6404
3)	-11.6413
▁Mir	-11.6413
tank	-11.6422
onies	-11.6424
▁sponsors	-11.643
▁spare	-11.6439
gov	-11.6452
▁Prospect	-11.6456
▁committ	-11.6457
.4%	-11.6459
▁oligarchs	-11.6475
▁provisions	-11.6478
▁ratings	-11.6479
other	-11.648
▁Abd	-11.649
▁integrat	-11.6492
rett	-11.6493
▁SE	-11.6505
vering	-11.6511
ağlı	-11.6517
▁aero	-11.652
scope	-11.6522
▁thoughtful	-11.6523
▁revelations	-11.6524
▁starters	-11.6525
▁inputs	-11.6526
▁$17	-11.6527
Not	-11.6535
▁patholog	-11.6544
▁rippl	-11.655
▁restricti	-11.6552
paid	-11.6561
bette	-11.6565
▁Jos	-11.6565
lves	-11.6566
ollar	-11.6566
▁festivals	-11.657
▁divisions	-11.657
Then	-11.6584
▁Eli	-11.6585
▁suits	-11.6587
▁exonerat	-11.6591
▁Bau	-11.6593
nyone	-11.6596
lies	-11.66
▁Yog	-11.6601
▁fishing	-11.6606
▁organics	-11.6612
▁$13	-11.6615
▁Chel	-11.6616
igra	-11.662
iene	-11.6625
ottery	-11.664
00,000	-11.6641
▁bang	-11.6645
slow	-11.6648
▁smartphones	-11.6663
▁earnings	-11.6664
▁tracked	-11.6669
▁Han	-11.6669
verflow	-11.667
▁influen	-11.6672
vol	-11.6676
▁hung	-11.668
cket	-11.6684
ario	-11.6691
▁Barb	-11.6692
▁circ	-11.6702
bad	-11.6705
äu	-11.6708
▁pie	-11.6709
▁quarterbacks	-11.671
$1	-11.6711
▁Write	-11.6719
SA	-11.6721
▁spik	-11.6724
ог	-11.6725
▁foundations	-11.674
indicato	-11.6741
▁BA	-11.6751
▁Trust	-11.6752
▁advances	-11.6754
▁collections	-11.6758
▁Ye	-11.6761
AX	-11.6766
▁lightn	-11.677
▁horrif	-11.6774
▁ward	-11.6777
Are	-11.6778
gado	-11.6781
dged	-11.6792
ortar	-11.6797
▁lanes	-11.6805
▁dec	-11.6805
▁Fift	-11.6805
logged	-11.6835
LL	-11.6835
▁volta	-11.6837
38	-11.6838
▁275	-11.6841
▁inch	-11.6847
▁haz	-11.685
▁sequences	-11.6851
▁spra	-11.6852
rtz	-11.6859
DetailsService	-11.6869
▁bags	-11.6875
fest	-11.6876
EC	-11.6887
rence	-11.6891
PS	-11.6892
т	-11.6893
900	-11.6899
into	-11.6901
▁pouc	-11.6905
▁Viv	-11.6909
▁organize	-11.6913
▁14-	-11.6944
rium	-11.6954
only	-11.6965
▁1.2	-11.6975
Hat	-11.6978
ement	-11.6979
▁Revolution	-11.6983
▁indic	-11.6991
▁offenses	-11.6994
▁18-	-11.6995
▁Indians	-11.6997
handed	-11.7027
Table	-11.7031
avo	-11.7033
▁jour	-11.7035
mog	-11.7041
nda	-11.7042
▁births	-11.7042
FS	-11.7046
▁neo	-11.7051
abili	-11.706
▁nega	-11.7066
100	-11.7082
▁sci	-11.7082
▁guardia	-11.7084
operated	-11.709
▁fur	-11.7094
jan	-11.7109
aked	-11.7122
▁EC	-11.7126
▁analyz	-11.7127
▁Fil	-11.7139
acco	-11.7147
press	-11.7149
dem	-11.715
gere	-11.7154
worthy	-11.7162
▁characteriz	-11.7162
▁$75	-11.7163
▁GM	-11.7169
zel	-11.7172
▁exercis	-11.7173
opted	-11.7177
ч	-11.7188
▁Alas	-11.7197
▁47	-11.7214
▁Bel	-11.722
pit	-11.7228
▁Glas	-11.7231
▁discriminate	-11.7242
▁entra	-11.7243
▁prob	-11.7247
iker	-11.7252
5)	-11.7253
300	-11.7254
▁origin	-11.7255
flow	-11.7286
として	-11.7291
put	-11.7294
▁FI	-11.7295
ition	-11.73
▁uno	-11.7313
▁Sch	-11.7317
▁Alb	-11.7321
order	-11.7326
▁sue	-11.7342
▁socio	-11.7347
7,000	-11.7352
▁900	-11.7357
uge	-11.7359
30,000	-11.7374
xaminer	-11.7378
cular	-11.738
rates	-11.7387
▁holiday	-11.7391
▁Capital	-11.7391
box	-11.7392
ğ	-11.7395
▁necess	-11.7397
▁competitor	-11.7397
▁frog	-11.7397
▁teammate	-11.7398
▁mechanism	-11.7399
110	-11.74
▁grande	-11.7404
▁creator	-11.7404
▁saving	-11.7404
▁tension	-11.7406
▁Throne	-11.7407
▁procedure	-11.7408
cross	-11.7409
▁Schr	-11.741
▁observer	-11.7411
▁allegation	-11.7415
mbling	-11.7417
▁Commerc	-11.7421
ezo	-11.7422
▁investor	-11.7426
▁nurse	-11.7427
▁retailer	-11.7427
▁insert	-11.7432
▁operative	-11.7436
lady	-11.7437
▁listener	-11.7438
▁$70	-11.7441
ristas	-11.7442
▁oh	-11.7443
▁motive	-11.7443
▁breath	-11.7445
figure	-11.7447
21	-11.7448
stead	-11.7448
▁bundler	-11.7453
▁violat	-11.7465
▁demonstrat	-11.7467
▁hacker	-11.7468
▁ego	-11.7469
User	-11.7469
ternal	-11.747
▁26.	-11.7474
rata	-11.7483
▁prisoner	-11.7487
cidade	-11.7487
earning	-11.7487
▁gang	-11.7488
▁proportion	-11.7492
found	-11.7497
psi	-11.7497
▁Swed	-11.7497
self	-11.7502
▁refus	-11.7502
▁vivi	-11.7507
bir	-11.7514
▁Extra	-11.7516
wick	-11.7519
lash	-11.752
▁mod	-11.7524
▁meme	-11.7532
▁Web	-11.7532
fei	-11.7533
fight	-11.7535
▁fuck	-11.7538
heid	-11.7544
-14	-11.7545
▁tackl	-11.7549
▁Nicol	-11.7549
loaded	-11.7555
▁NS	-11.7556
special	-11.7559
▁prioritize	-11.7559
scribe	-11.756
▁Reg	-11.7566
examined	-11.7566
▁Jon	-11.7569
DER	-11.7571
politics	-11.7576
к	-11.7576
『	-11.7578
bourgeois	-11.7579
ко	-11.7579
amigo	-11.7579
▁strat	-11.7579
▁plac	-11.758
Type	-11.758
Given	-11.7581
storm	-11.7581
meaning	-11.7581
crazy	-11.7581
Strasserism	-11.7581
Earth	-11.7582
gender	-11.7582
health	-11.7582
mentioned	-11.7582
Since	-11.7582
extreme	-11.7582
Yeah	-11.7582
Seth	-11.7582
response	-11.7582
security	-11.7582
John	-11.7582
Attorney	-11.7582
climate	-11.7583
black	-11.7583
great	-11.7583
false	-11.7583
WE	-11.7584
justice	-11.7584
quick	-11.7586
because	-11.7588
Bob	-11.7589
think	-11.7589
clock	-11.7589
week	-11.759
modern	-11.759
800	-11.7591
haul	-11.7591
speed	-11.7595
Book	-11.7595
▁imagin	-11.7597
Out	-11.7598
▁yell	-11.7598
tale	-11.7601
two	-11.7603
▁Tavern	-11.7603
▁Motor	-11.7606
fts	-11.7608
▁applaud	-11.7609
▁censor	-11.7609
▁Spok	-11.7609
▁absorb	-11.761
▁purport	-11.7611
OK	-11.7612
wall	-11.7613
zero	-11.7615
▁endanger	-11.7615
ibo	-11.7618
▁slap	-11.7624
HD	-11.7624
▁Tam	-11.7628
▁squa	-11.7629
▁cook	-11.7632
tv	-11.7634
ggi	-11.7635
3,000	-11.7638
fire	-11.7638
▁agricultur	-11.7639
coup	-11.764
▁embrace	-11.7642
team	-11.7644
▁populist	-11.7647
▁bloc	-11.7651
▁sudden	-11.7651
▁philosoph	-11.7653
▁spu	-11.7653
▁unfortunate	-11.7654
▁loud	-11.7654
▁guilt	-11.7657
▁contend	-11.766
▁Albert	-11.766
▁Command	-11.7661
▁Travel	-11.7662
▁Qual	-11.7662
▁Walk	-11.7663
▁intersection	-11.7663
▁recover	-11.7664
▁hopeful	-11.7665
VI	-11.7665
▁Lead	-11.7665
fforts	-11.7667
auth	-11.7667
▁Break	-11.7667
▁dingo	-11.7669
▁legislat	-11.7669
▁Know	-11.767
kill	-11.7671
jector	-11.7671
▁contaminat	-11.7672
magine	-11.7672
printed	-11.7673
ythx	-11.7673
housands	-11.7673
brows	-11.7673
▁worrie	-11.7673
▁Victor	-11.7673
▁unwilling	-11.7674
▁Progress	-11.7674
▁çöz	-11.7674
テ	-11.7674
プ	-11.7674
ラ	-11.7674
▁gymnast	-11.7675
Bacteria	-11.7675
▁Procuradoria	-11.7675
▁Universal	-11.7675
▁smuggl	-11.7675
▁unpleasant	-11.7675
Rayah	-11.7675
bureaucratic	-11.7675
clamation	-11.7675
commerce	-11.7675
myClassObject	-11.7675
optimal	-11.7675
responsibilities	-11.7675
stereotype	-11.7675
Я	-11.7675
▁Administration	-11.7675
▁Advocate	-11.7675
▁Antagonista	-11.7675
▁Azpúrua	-11.7675
▁Benhaffaf	-11.7675
▁BlackBerry	-11.7675
▁Campaign	-11.7675
▁Caracas	-11.7675
▁Chainlink	-11.7675
▁Children	-11.7675
▁Cittadino	-11.7675
▁Conjuring	-11.7675
▁Crenshaw	-11.7675
▁Cultura	-11.7675
▁Cuthbert	-11.7675
▁Delaney	-11.7675
▁Dickerson	-11.7675
▁Dickson	-11.7675
▁Empire	-11.7675
▁Enjoy	-11.7675
▁Episode	-11.7675
▁Ferdinand	-11.7675
▁Frozen	-11.7675
▁Gifford	-11.7675
▁Greenpeace	-11.7675
▁Haberman	-11.7675
▁Hellickson	-11.7675
▁Hendrickson	-11.7675
▁Hezbollah	-11.7675
▁Holocaust	-11.7675
▁Imamoglu	-11.7675
▁Individual	-11.7675
▁Insekten	-11.7675
▁Karnataka	-11.7675
▁Klokov	-11.7675
▁Lincoln	-11.7675
▁Lokhova	-11.7675
▁Londra	-11.7675
▁Madrid	-11.7675
▁Messenger	-11.7675
▁Ministro	-11.7675
▁Ministry	-11.7675
▁Netanyahu	-11.7675
▁Nevada	-11.7675
▁Nightingale	-11.7675
▁Polaroid	-11.7675
▁Polonskaya	-11.7675
▁Pradesh	-11.7675
▁Privacy	-11.7675
▁Publisher	-11.7675
▁Quartz	-11.7675
▁Quenneville	-11.7675
▁Ranallo	-11.7675
▁Renegades	-11.7675
▁Rodriguez	-11.7675
▁Roemenië	-11.7675
▁Scientist	-11.7675
▁Screenshot	-11.7675
▁Shanghai	-11.7675
▁Shaolin	-11.7675
▁Sketch	-11.7675
▁Spielberg	-11.7675
▁Studebaker	-11.7675
▁Summon	-11.7675
▁SunPass	-11.7675
▁TANF	-11.7675
▁TODAY	-11.7675
▁Temple	-11.7675
▁Thornton	-11.7675
▁Thyssen	-11.7675
▁Ventura	-11.7675
▁Voatz	-11.7675
▁abastecimento	-11.7675
▁acquisition	-11.7675
▁advogado	-11.7675
▁aggression	-11.7675
▁alternate	-11.7675
▁altogether	-11.7675
▁apunta	-11.7675
▁aristocracy	-11.7675
▁brasileiro	-11.7675
▁candidacy	-11.7675
▁capabilities	-11.7675
▁catastrophic	-11.7675
▁commodity	-11.7675
▁compression	-11.7675
▁configuration	-11.7675
▁copilot	-11.7675
▁cosmetic	-11.7675
▁criminoso	-11.7675
▁defamation	-11.7675
▁democracies	-11.7675
▁demolish	-11.7675
▁dünya	-11.7675
▁espaço	-11.7675
▁exacerbate	-11.7675
▁fracture	-11.7675
▁frozen	-11.7675
▁gallery	-11.7675
▁giovan	-11.7675
▁gradual	-11.7675
▁grappl	-11.7675
▁ilícita	-11.7675
▁impairment	-11.7675
▁imprisonment	-11.7675
▁inconvenient	-11.7675
▁inflation	-11.7675
▁iniciativa	-11.7675
▁innovativ	-11.7675
▁intimidated	-11.7675
▁juzgado	-11.7675
▁libertarian	-11.7675
▁liberty	-11.7675
▁março	-11.7675
▁mecánica	-11.7675
▁misdemeanor	-11.7675
▁motherfucker	-11.7675
▁multiplied	-11.7675
▁nenhum	-11.7675
▁obscure	-11.7675
▁parasitism	-11.7675
▁patriot	-11.7675
▁pencil	-11.7675
▁plague	-11.7675
▁plummet	-11.7675
▁psychologist	-11.7675
▁reboot	-11.7675
▁rebuttal	-11.7675
▁recipe	-11.7675
▁reconcile	-11.7675
▁refrain	-11.7675
▁reproductive	-11.7675
▁scheduling	-11.7675
▁shelved	-11.7675
▁shrink	-11.7675
▁specified	-11.7675
▁spectacular	-11.7675
▁starvation	-11.7675
▁susceptib	-11.7675
▁sábado	-11.7675
▁tangible	-11.7675
▁tiempo	-11.7675
▁trespass	-11.7675
▁unanimous	-11.7675
▁unanswered	-11.7675
▁unethical	-11.7675
▁unreasonable	-11.7675
▁unreliable	-11.7675
▁victories	-11.7675
▁71-7	-11.7675
▁Brief	-11.7675
▁Carney	-11.7675
▁HUD	-11.7675
▁Madison	-11.7675
▁Movement	-11.7675
▁Quarians	-11.7675
▁chytrid	-11.7675
▁harvest	-11.7675
▁immense	-11.7675
▁improper	-11.7675
▁paranoia	-11.7675
▁perigosa	-11.7675
▁posterior	-11.7675
▁remedy	-11.7675
▁slump	-11.7675
▁traforo	-11.7675
▁Beijing	-11.7675
▁Celtic	-11.7675
▁Herbert	-11.7675
▁Pizza	-11.7675
▁Portela	-11.7675
▁Qatar	-11.7675
▁Resident	-11.7675
▁Skousen	-11.7675
▁Soccer	-11.7675
▁Study	-11.7675
▁Tanak	-11.7675
▁cascade	-11.7675
▁elevate	-11.7675
▁invisible	-11.7675
▁maneira	-11.7675
▁muerte	-11.7675
▁sibling	-11.7675
▁valore	-11.7675
▁Parenthood	-11.7675
▁avenue	-11.7675
▁collectibles	-11.7675
▁corpo	-11.7675
▁cresc	-11.7675
▁distort	-11.7675
▁fierce	-11.7675
Horizon	-11.7675
Probably	-11.7675
pacity	-11.7675
▁Blade	-11.7675
▁EDT	-11.7675
▁Hahn	-11.7675
▁Queensland	-11.7675
▁Website	-11.7675
▁Writing	-11.7675
▁backbone	-11.7675
▁bleeding	-11.7675
▁consiglier	-11.7675
▁domingo	-11.7675
▁recurr	-11.7675
▁testimoni	-11.7675
resumably	-11.7675
▁Kirk	-11.7675
▁defence	-11.7675
▁redeem	-11.7675
▁silent	-11.7675
▁Lansing	-11.7675
▁Resources	-11.7675
▁awesome	-11.7675
▁graft	-11.7675
賛同	-11.7675
Function	-11.7675
▁mourn	-11.7675
▁annotation	-11.7675
▁distant	-11.7675
Migrant	-11.7675
▁Pitch	-11.7675
▁ultra	-11.7675
▁Honeywell	-11.7675
▁volatil	-11.7675
▁Hackworth	-11.7675
▁Newcomb	-11.7675
▁Peak	-11.7675
▁Small	-11.7675
▁это	-11.7675
▁MLS	-11.7675
▁abolish	-11.7675
▁chinês	-11.7675
性	-11.7675
Submit	-11.7675
▁Serge	-11.7675
▁revolt	-11.7675
▁circuit	-11.7675
▁statistical	-11.7675
▁thumb	-11.7675
▁Storm	-11.7675
▁peddl	-11.7675
▁ESC	-11.7675
▁retira	-11.7675
▁instability	-11.7675
ト	-11.7675
立	-11.7675
▁Belfast	-11.7675
▁munições	-11.7675
▁transmission	-11.7675
▁Schumer	-11.7675
▁Arthur	-11.7675
▁Clearly	-11.7675
▁Greenwald	-11.7675
▁annexati	-11.7675
▁merchandise	-11.7675
▁Hassan	-11.7675
▁Close	-11.7675
▁Editor	-11.7675
▁Leonard	-11.7675
▁Print	-11.7675
nuncio	-11.7675
▁DATA	-11.7675
▁Sasso	-11.7675
▁airframe	-11.7675
▁Collier	-11.7675
▁Prix	-11.7675
▁buried	-11.7675
▁streak	-11.7675
▁suburb	-11.7675
▁varied	-11.7675
▁primaries	-11.7675
上	-11.7675
▁Crim	-11.7675
▁cellphone	-11.7675
▁collaborator	-11.7675
pathetic	-11.7675
▁Herald	-11.7675
▁Expert	-11.7675
▁mounted	-11.7675
▁smell	-11.7675
メ	-11.7675
▁contingen	-11.7675
▁identities	-11.7675
Split	-11.7675
▁Tiger	-11.7675
▁prodott	-11.7675
▁Edition	-11.7675
▁martial	-11.7675
▁endured	-11.7675
▁también	-11.7675
▁Vegan	-11.7675
和	-11.7676
作品	-11.7676
▁constru	-11.7676
マ	-11.7676
▁summon	-11.7676
▁terça	-11.7676
▁playoffs	-11.7676
▁Communications	-11.7676
▁loving	-11.7676
▁curtail	-11.7676
▁outfit	-11.7676
▁Judge	-11.7676
▁Valera	-11.7676
▁Mahara	-11.7676
▁üzerinde	-11.7676
aqua	-11.7676
公	-11.7676
▁Cubs	-11.7676
▁forgotten	-11.7676
▁Saint	-11.7676
▁worthwhile	-11.7676
warren	-11.7676
▁Becket	-11.7676
▁Swanson	-11.7676
▁Help	-11.7676
▁Hoyer	-11.7676
子	-11.7676
▁expertise	-11.7676
▁headmaster	-11.7676
地	-11.7676
▁drei	-11.7676
▁mobility	-11.7676
▁1989	-11.7676
▁lining	-11.7676
,400	-11.7676
本	-11.7676
生	-11.7676
▁proclaim	-11.7676
▁ceilings	-11.7676
▁exhaustive	-11.7676
▁retweet	-11.7676
▁liar	-11.7676
▁innate	-11.7676
▁Assad	-11.7676
▁homosexuality	-11.7676
▁NPV	-11.7676
▁colonies	-11.7676
Save	-11.7676
▁yemek	-11.7676
▁scratch	-11.7676
▁celebration	-11.7676
uffed	-11.7677
▁Controller	-11.7677
▁fixture	-11.7677
▁sym	-11.7677
▁shipped	-11.7677
▁stok	-11.7677
▁deployment	-11.7677
▁temporar	-11.7677
▁classmate	-11.7677
▁discretion	-11.7677
▁Classic	-11.7677
▁dimension	-11.7677
▁vector	-11.7677
▁vliegen	-11.7677
▁felony	-11.7677
▁wieder	-11.7677
▁Foster	-11.7677
▁Copaque	-11.7677
▁mudd	-11.7677
Reilly	-11.7677
▁rehabb	-11.7677
▁bidding	-11.7678
▁Metroid	-11.7678
▁1967	-11.7678
▁interim	-11.7678
▁relax	-11.7678
▁relegat	-11.7678
▁elett	-11.7678
▁necessity	-11.7678
▁vests	-11.7678
▁honra	-11.7678
▁GPS	-11.7678
▁embodi	-11.7678
▁rebellion	-11.7678
▁Drew	-11.7678
▁Tessa	-11.7678
▁Ltd	-11.7678
▁stadium	-11.7678
▁1934	-11.7678
▁qualities	-11.7678
shady	-11.7678
▁baseball	-11.7678
▁policymakers	-11.7678
▁Angie	-11.7678
▁sociologist	-11.7678
▁WiFi	-11.7678
maine	-11.7678
▁passport	-11.7678
▁dumb	-11.7678
▁feudalism	-11.7679
▁visto	-11.7679
▁EDI	-11.7679
CEF	-11.7679
▁Lima	-11.7679
▁integration	-11.7679
▁thigh	-11.7679
▁Caitl	-11.7679
▁precise	-11.7679
▁Wade	-11.7679
▁enhancement	-11.7679
▁Lula	-11.7679
▁respective	-11.7679
▁Hinge	-11.7679
▁chor	-11.768
▁priest	-11.768
▁1997	-11.768
▁Investment	-11.768
▁regi	-11.768
▁Vara	-11.768
▁Bernardes	-11.768
▁Haye	-11.768
itsu	-11.7681
▁localhost	-11.7681
agent	-11.7681
▁swallow	-11.7681
▁automation	-11.7681
▁outros	-11.7681
▁detrimental	-11.7681
▁Lamb	-11.7681
▁Unified	-11.7681
▁takeaway	-11.7681
▁Villa	-11.7681
▁analytic	-11.7681
vocation	-11.7681
▁Boris	-11.7681
▁pillar	-11.7682
▁siete	-11.7682
▁gibi	-11.7682
swc	-11.7682
▁wrestler	-11.7682
▁Year	-11.7682
▁detection	-11.7682
▁completion	-11.7682
▁pride	-11.7682
▁epi	-11.7683
▁mismo	-11.7683
▁paperwork	-11.7683
▁bureau	-11.7683
или	-11.7683
▁pinch	-11.7684
▁sel	-11.7684
▁coincide	-11.7684
▁Regel	-11.7684
▁funcionaria	-11.7684
▁membership	-11.7685
▁entity	-11.7685
▁choreography	-11.7685
▁deadline	-11.7685
▁Balboni	-11.7685
▁Zelenskiy	-11.7685
▁arbitrary	-11.7685
▁celebrating	-11.7685
▁inadequate	-11.7685
▁intelligent	-11.7685
▁relentless	-11.7685
▁satisfied	-11.7685
▁subsidiarity	-11.7685
▁Reach	-11.7685
▁Model	-11.7685
▁Mix	-11.7686
▁unlock	-11.7686
▁Pollen	-11.7687
▁dedication	-11.7687
▁Fux	-11.7687
▁Fisher	-11.7687
▁próximo	-11.7687
▁seriousness	-11.7687
Dream	-11.7688
▁2.5	-11.7688
▁Down	-11.7688
▁compiler	-11.7688
humiliating	-11.7688
▁factual	-11.7688
▁manual	-11.7689
▁Jail	-11.7689
▁billet	-11.7689
▁bystander	-11.7689
▁discipline	-11.7689
▁powerhouse	-11.7689
▁Domin	-11.7689
▁Hack	-11.769
▁informant	-11.769
Antifa	-11.769
ockey	-11.769
▁SPD	-11.769
▁Reid	-11.769
▁theorist	-11.769
▁hunger	-11.7691
▁realization	-11.7691
zoek	-11.7691
imperialism	-11.7691
▁pan	-11.7691
▁görül	-11.7692
▁Stack	-11.7692
▁tolerate	-11.7692
▁Previously	-11.7692
▁alvo	-11.7693
▁incorporate	-11.7693
▁categoriz	-11.7693
four	-11.7693
▁contatt	-11.7693
▁seiner	-11.7694
▁statewide	-11.7694
▁бы	-11.7694
ême	-11.7694
▁50%	-11.7694
▁UNI	-11.7694
▁spur	-11.7695
▁Herman	-11.7695
▁Amann	-11.7695
▁perpetuat	-11.7695
▁downfield	-11.7695
▁XD	-11.7695
▁rub	-11.7696
▁possesses	-11.7697
▁withdrawal	-11.7697
▁wooden	-11.7697
transgender	-11.7697
▁prediction	-11.7697
▁essay	-11.7697
quest	-11.7698
▁stol	-11.7698
▁Caller	-11.7698
acht	-11.7698
isclaimer	-11.7699
uerto	-11.7699
▁perfection	-11.77
▁buses	-11.77
▁agora	-11.77
▁Corporat	-11.7701
▁outbid	-11.7702
▁cargo	-11.7702
▁weaken	-11.7702
▁psycho	-11.7702
▁pronounce	-11.7703
TY	-11.7703
▁zwei	-11.7703
▁Luckily	-11.7703
▁devolution	-11.7703
revyen	-11.7704
▁smash	-11.7704
ês	-11.7704
▁fluid	-11.7704
▁176	-11.7705
imiento	-11.7705
▁petition	-11.7705
abinet	-11.7705
▁countryside	-11.7705
▁Low	-11.7706
▁shutdown	-11.7706
▁extremist	-11.7707
▁embraced	-11.7708
▁dry	-11.7709
▁etkisi	-11.7709
▁viable	-11.7709
▁Cook	-11.771
▁breathe	-11.771
▁additi	-11.7712
▁activated	-11.7712
Chi	-11.7712
alata	-11.7712
▁etwa	-11.7713
▁cage	-11.7714
▁(-2	-11.7715
▁meantime	-11.7715
▁Maine	-11.7715
▁Comer	-11.7715
▁delete	-11.7716
heit	-11.7716
▁proceeding	-11.7716
▁Nazism	-11.7717
▁branches	-11.7718
▁Sony	-11.7718
▁criminality	-11.7719
substantial	-11.7719
▁apologized	-11.7719
▁kişi	-11.7721
▁pill	-11.7721
▁Cloud	-11.7721
▁Remember	-11.7722
▁nobody	-11.7722
▁Geo	-11.7723
▁reflection	-11.7723
▁hush	-11.7723
ль	-11.7723
▁Albertans	-11.7724
ør	-11.7724
▁emu	-11.7724
▁porco	-11.7726
▁storyline	-11.7726
▁succeeded	-11.7727
▁steer	-11.7727
▁verbal	-11.7728
▁Barne	-11.7728
▁familiares	-11.7729
="	-11.7729
▁successor	-11.773
▁busca	-11.773
▁Buk	-11.773
▁(15	-11.7731
▁reunite	-11.7732
▁musician	-11.7732
▁preside	-11.7733
▁1:1	-11.7734
▁fictional	-11.7734
▁churches	-11.7734
▁fitting	-11.7737
recho	-11.7737
▁cock	-11.7738
▁Area	-11.7738
▁pitches	-11.774
▁notably	-11.774
▁visually	-11.7742
▁tuned	-11.7742
▁Nova	-11.7742
▁fishes	-11.7743
▁potent	-11.7744
▁confrontation	-11.7744
▁justification	-11.7744
▁Bonn	-11.7745
▁compil	-11.7745
▁retreat	-11.7746
ouver	-11.7747
▁Aug	-11.7747
▁skipp	-11.7749
loin	-11.7749
▁reserved	-11.7749
▁+1	-11.7749
▁settled	-11.7751
▁delega	-11.7753
▁convenient	-11.7753
▁Jong	-11.7753
▁appreciat	-11.7753
▁breathing	-11.7755
▁usage	-11.7757
▁RELATED	-11.7758
▁safer	-11.7758
crawl	-11.7759
▁exclusively	-11.776
▁mandato	-11.776
nvalid	-11.7761
▁gest	-11.7762
▁neglected	-11.7762
▁collaborate	-11.7762
hearted	-11.7762
▁striv	-11.7763
▁recht	-11.7763
prostitution	-11.7764
▁scoring	-11.7765
▁cooked	-11.7767
▁Pav	-11.7767
▁Terry	-11.7768
▁kon	-11.7768
▁fleeing	-11.7769
▁donor	-11.777
▁poke	-11.777
▁Customer	-11.777
rebbe	-11.7772
▁36%	-11.7772
▁abandoned	-11.7773
▁DH	-11.7773
dame	-11.7775
▁WB	-11.7775
-15	-11.7775
jah	-11.7775
▁carrier	-11.7776
marked	-11.7777
▁Bless	-11.7778
▁rioting	-11.7783
▁folding	-11.7783
▁progression	-11.7783
▁Eine	-11.7785
headed	-11.7785
▁Top	-11.7785
▁Rear	-11.7786
▁Samant	-11.7786
▁539	-11.7786
▁prescrib	-11.7787
▁Bio	-11.7787
▁Dean	-11.7788
guided	-11.7788
▁historically	-11.7788
segu	-11.779
Cu	-11.7793
▁apologise	-11.7795
▁Noor	-11.7795
▁architecture	-11.7796
▁Insta	-11.7796
▁punished	-11.7797
TIC	-11.7797
▁Pel	-11.7799
▁seastead	-11.7803
▁Feed	-11.7803
▁enforce	-11.7805
▁SM	-11.7806
▁penn	-11.7806
▁lyrics	-11.7807
▁ella	-11.7808
entre	-11.7808
▁flaws	-11.7808
▁bottles	-11.7809
▁Grass	-11.7812
▁Sur	-11.7813
▁touted	-11.7813
Hey	-11.7814
––––––––––––––+	-11.7814
▁conta	-11.7815
▁lament	-11.7817
▁prejudic	-11.7817
▁cried	-11.7818
▁Powe	-11.7818
▁enforced	-11.7819
▁altered	-11.782
scout	-11.7822
つ	-11.7823
bst	-11.7824
▁visualize	-11.7828
▁singing	-11.7829
▁Voter	-11.7831
▁slapp	-11.7832
▁Pul	-11.7832
▁Tro	-11.7837
▁unidad	-11.7838
▁Test	-11.7839
▁shopp	-11.7842
▁Fred	-11.7844
▁vertical	-11.7849
4-5	-11.7849
▁Anna	-11.7849
▁avant	-11.7852
▁Stand	-11.7855
▁sala	-11.7857
▁Andro	-11.7857
ны	-11.7858
▁bud	-11.7858
alone	-11.7859
▁marginal	-11.7859
▁previews	-11.786
▁organizer	-11.7861
▁OB	-11.7866
holders	-11.7866
▁Vot	-11.7869
▁Depend	-11.788
▁microdoser	-11.7882
▁fatal	-11.7883
▁autoriza	-11.7883
▁2%	-11.7887
▁Shell	-11.7888
381	-11.7889
Poop	-11.7891
nything	-11.7892
▁cinematic	-11.7898
▁Pay	-11.7899
▁tw	-11.7905
▁­	-11.7906
yber	-11.7909
▁intake	-11.791
▁internally	-11.7913
▁megawatts	-11.7914
▁barriers	-11.7914
▁pad	-11.7917
ля	-11.7918
LES	-11.7919
▁broadcaster	-11.7919
▁Concern	-11.7923
▁Cod	-11.7926
▁Want	-11.7927
▁clicking	-11.7927
▁$400	-11.7928
mmu	-11.7929
▁norm	-11.793
▁farmers	-11.7936
▁loaded	-11.7937
▁Operat	-11.7937
▁Sin	-11.7938
▁Soon	-11.7942
▁Linds	-11.7947
▁professore	-11.7947
▁prohibited	-11.795
▁scaled	-11.795
ML	-11.7952
meters	-11.7954
▁operatives	-11.7967
▁Capitals	-11.7967
▁holidays	-11.7967
▁teammates	-11.7967
▁gangs	-11.7968
▁exchanged	-11.7974
▁retailers	-11.7978
▁definiti	-11.7983
LO	-11.7983
▁Grant	-11.7983
preservation	-11.7989
▁Hora	-11.799
▁Leo	-11.7994
▁deber	-11.7996
▁Heat	-11.7997
▁measur	-11.8001
▁biased	-11.8004
▁resembl	-11.8005
▁painting	-11.8006
mesi	-11.8006
▁Lost	-11.8007
▁winger	-11.8008
▁así	-11.801
▁Rat	-11.8012
▁Shahr	-11.8014
FSA	-11.8021
▁Records	-11.8021
▁crystals	-11.8021
▁arrangements	-11.8021
▁crowded	-11.8021
▁exits	-11.8022
▁rear	-11.8022
VE	-11.8024
▁bug	-11.8025
▁porn	-11.8026
▁chas	-11.8027
▁arc	-11.8028
▁gewo	-11.8029
▁furto	-11.803
ische	-11.8031
profit	-11.8034
has	-11.8034
▁SC	-11.8034
▁lightly	-11.8037
▁advocat	-11.8039
ultim	-11.804
YS	-11.8042
fé	-11.8045
active	-11.8051
twitch	-11.8054
▁surveyed	-11.8055
▁Dah	-11.8055
44%	-11.8058
unite	-11.8058
▁Walt	-11.8062
kann	-11.8069
▁$36	-11.8069
▁opera	-11.807
cum	-11.8072
▁Done	-11.8072
▁scams	-11.8072
▁Finns	-11.8076
▁sleeves	-11.8076
▁Economics	-11.8076
▁partnerships	-11.8076
▁Stevens	-11.8076
▁eggs	-11.8077
▁Rogers	-11.8077
▁suggestions	-11.8082
erman	-11.8089
▁MI	-11.809
oria	-11.8094
▁remembered	-11.8129
aveat	-11.8129
DP	-11.8129
▁firearms	-11.813
▁Emails	-11.813
▁Char	-11.8133
rading	-11.8135
CE	-11.8136
▁sm	-11.8137
▁alleges	-11.8141
osa	-11.815
Glass	-11.8154
▁viele	-11.8155
einer	-11.8164
му	-11.817
case	-11.8172
elon	-11.8174
▁Vas	-11.8175
Sept	-11.8177
thé	-11.818
▁spans	-11.818
▁54	-11.8185
▁pel	-11.8185
▁bricks	-11.8185
▁profits	-11.8187
pert	-11.8189
▁evitar	-11.8189
▁shoots	-11.8191
▁correction	-11.8197
sale	-11.8198
▁HR	-11.82
rood	-11.8202
FIP	-11.8202
▁bras	-11.8207
▁Kal	-11.8215
▁upgrades	-11.822
-200	-11.8229
ncer	-11.8232
igg	-11.8234
▁guarding	-11.824
▁Orleans	-11.824
▁Lithuanians	-11.824
▁rant	-11.8257
▁drafting	-11.8259
vesse	-11.8261
Va	-11.8262
▁participa	-11.8265
▁symbolic	-11.8267
▁NOT	-11.8274
▁finaliz	-11.829
▁gathering	-11.829
bilir	-11.8296
▁dangers	-11.8296
range	-11.8301
▁SAN	-11.8313
▁showcas	-11.8317
bau	-11.832
▁360	-11.8322
venil	-11.8333
Computer	-11.8334
▁Sys	-11.8345
▁sensitiv	-11.835
Alan	-11.8356
▁customiz	-11.8366
PL	-11.8367
▁Rocke	-11.8371
▁1.5	-11.8371
▁49	-11.8378
cious	-11.8379
yla	-11.8394
ttar	-11.8395
hur	-11.8397
▁Mitte	-11.84
▁Sco	-11.8403
▁Gib	-11.8416
▁24-	-11.8419
written	-11.8431
▁Reader	-11.8432
lics	-11.8441
ри	-11.8445
▁sol	-11.8446
▁Lauren	-11.8452
PC	-11.8459
corn	-11.8463
2%)	-11.8464
▁Twi	-11.8471
▁ela	-11.8474
gua	-11.8485
lift	-11.8488
dium	-11.85
gation	-11.8501
contri	-11.851
exist	-11.8514
ança	-11.8515
Integ	-11.8517
itz	-11.8518
▁capitalize	-11.8525
▁Tage	-11.8532
▁fatt	-11.8547
WO	-11.8548
manda	-11.856
▁Citizen	-11.8562
▁ki	-11.8573
apping	-11.8575
▁Pack	-11.858
édi	-11.8596
▁LE	-11.8608
▁grandes	-11.8619
UE	-11.8629
-69	-11.8644
orate	-11.8651
▁Gri	-11.8659
xes	-11.8668
what	-11.8674
menti	-11.8675
▁emergenc	-11.8681
▁$26	-11.8691
ernes	-11.8697
▁USD	-11.8715
го	-11.8716
▁quel	-11.8717
emente	-11.8719
▁Brun	-11.8726
48%	-11.8728
pez	-11.8729
183	-11.8733
▁9%	-11.8735
▁noch	-11.8738
position	-11.8749
▁feu	-11.8754
nded	-11.8758
LT	-11.876
▁lei	-11.8761
urgency	-11.8778
umb	-11.8783
▁flo	-11.8786
sport	-11.8794
ortal	-11.88
OF	-11.8806
▁evaluat	-11.8812
naval	-11.8859
▁Den	-11.8868
▁Strange	-11.8874
still	-11.8886
▁Kit	-11.8888
▁Fri	-11.8896
Bri	-11.89
ppy	-11.8909
▁oust	-11.8909
resa	-11.8918
▁mic	-11.8925
▁Comput	-11.8925
dad	-11.8931
ет	-11.8932
washed	-11.8951
ilion	-11.8953
▁ning	-11.8954
▁hac	-11.8959
▁Cur	-11.8965
▁barr	-11.897
ibi	-11.8972
dair	-11.8973
▁Tori	-11.8975
opa	-11.8975
gang	-11.898
eces	-11.8986
▁tokenize	-11.8988
705	-11.899
▁Liste	-11.8999
°	-11.8999
▁NO	-11.9003
clear	-11.9015
asca	-11.9018
▁believ	-11.9019
▁autor	-11.9022
▁1.0	-11.9022
▁casual	-11.9025
phone	-11.9027
▁Physic	-11.9028
cola	-11.903
.6%	-11.9033
emos	-11.9034
slated	-11.9038
unwa	-11.9043
▁evento	-11.9044
▁Lie	-11.9048
▁Ele	-11.9054
▁Marc	-11.9073
agi	-11.9077
93	-11.9111
atte	-11.9116
nti	-11.9116
▁offse	-11.9125
menstru	-11.913
▁Raf	-11.9133
abilidade	-11.9136
shore	-11.9147
logical	-11.9152
nprofit	-11.9153
▁Event	-11.9156
600	-11.9161
ounding	-11.9173
never	-11.918
unk	-11.9193
▁dense	-11.9204
いた	-11.9212
▁hab	-11.9218
▁Cave	-11.9228
strom	-11.9229
▁Oct	-11.9235
either	-11.924
▁sext	-11.924
tzen	-11.9241
▁summarize	-11.9261
lier	-11.9262
lite	-11.9263
Ook	-11.9274
▁800	-11.9284
ikta	-11.9288
▁Vu	-11.9291
▁escap	-11.9291
▁evad	-11.9295
▁poss	-11.9315
etary	-11.932
taker	-11.9326
▁Dese	-11.9328
eyed	-11.9342
х	-11.9348
▁emotion	-11.9348
▁sanction	-11.9348
▁Rebe	-11.9361
runner	-11.9365
var	-11.9373
▁Main	-11.9388
▁barrier	-11.9393
▁Statistic	-11.9395
▁monster	-11.9396
▁comfort	-11.9398
▁Prosecutor	-11.9399
▁adjustment	-11.9399
▁antibiotic	-11.94
▁ancestr	-11.9403
▁megawatt	-11.9403
▁Dam	-11.9406
▁1,5	-11.9406
▁component	-11.9409
▁migrant	-11.9409
▁Jacob	-11.941
▁circumstance	-11.9411
ен	-11.9412
▁tower	-11.9417
lijk	-11.9418
ndern	-11.9422
▁Mill	-11.9424
▁parl	-11.9427
▁Shah	-11.9432
▁investigator	-11.9435
▁rim	-11.9439
▁Polis	-11.9445
▁leas	-11.9448
▁mate	-11.9451
▁Player	-11.9454
▁expectation	-11.9457
▁cro	-11.9463
öl	-11.9465
▁spa	-11.9466
én	-11.9469
▁syn	-11.947
ssem	-11.9471
trained	-11.9473
▁89	-11.9478
hara	-11.9479
▁folk	-11.9482
▁Off	-11.95
▁romantic	-11.9506
load	-11.9506
▁farmer	-11.9506
▁defec	-11.9509
perform	-11.9513
spiring	-11.9514
▁Makin	-11.9514
#	-11.9516
▁Julie	-11.9518
▁authentic	-11.9523
bsolutely	-11.9524
ngel	-11.9527
weigh	-11.9528
▁comunica	-11.9529
understanding	-11.9533
OL	-11.954
▁protester	-11.9542
far	-11.9544
claim	-11.9553
▁Lou	-11.9556
▁Cath	-11.9556
▁architectur	-11.9557
▁achiev	-11.9558
257	-11.9561
▁viv	-11.9564
extra	-11.9566
ddly	-11.9568
brown	-11.9573
▁Pode	-11.9573
Strasserite	-11.9574
RELATED	-11.9575
natural	-11.9575
verification	-11.9576
certain	-11.9577
member	-11.9577
recht	-11.9577
sponsor	-11.9578
Everything	-11.9579
diği	-11.9579
Terry	-11.9579
stock	-11.958
cycle	-11.958
consumer	-11.958
Where	-11.958
minute	-11.958
Abramson	-11.958
blind	-11.958
Play	-11.9581
wealthy	-11.9581
Power	-11.9581
driven	-11.9581
ABC	-11.9581
Watch	-11.9581
partisan	-11.9581
consider	-11.9581
length	-11.9582
double	-11.9582
Photo	-11.9582
violent	-11.9582
driving	-11.9582
piece	-11.9582
public	-11.9582
changing	-11.9582
collusion	-11.9582
Like	-11.9582
limited	-11.9582
water	-11.9582
described	-11.9582
intelligence	-11.9582
McGahn	-11.9583
significant	-11.9583
energy	-11.9583
Most	-11.9583
platform	-11.9583
promot	-11.9583
percent	-11.9584
illegal	-11.9585
▁Deutsch	-11.9586
GOP	-11.9586
nothing	-11.9587
hash	-11.9588
after	-11.9588
Right	-11.959
having	-11.9593
▁pedi	-11.9593
super	-11.9593
▁contr	-11.9593
perfect	-11.9593
▁embarrass	-11.9593
▁qualify	-11.9595
Part	-11.9595
evidence	-11.9595
mega	-11.9599
▁plea	-11.96
would	-11.9602
▁Neur	-11.9602
motion	-11.9602
UK	-11.9606
▁XR	-11.9606
▁strip	-11.9606
ddeu	-11.9611
▁succeed	-11.9612
especially	-11.9612
▁reimburs	-11.9612
▁anticipat	-11.9613
Now	-11.9614
production	-11.9614
▁hora	-11.9616
revolutionary	-11.9617
▁constitution	-11.9622
beat	-11.9622
GE	-11.9622
▁reduzi	-11.9625
ndling	-11.9625
▁princip	-11.963
amma	-11.9632
Care	-11.9635
▁whip	-11.9636
▁plausibl	-11.9641
▁dub	-11.9642
▁McKe	-11.9643
▁activate	-11.9643
▁futur	-11.9643
▁Clark	-11.9643
▁pré	-11.9647
▁hap	-11.9649
▁quart	-11.9649
▁Short	-11.9651
baix	-11.9654
▁creep	-11.9655
▁societ	-11.9656
▁Mount	-11.9656
▁charit	-11.9657
▁swor	-11.9657
▁literal	-11.9658
▁torture	-11.9659
founded	-11.966
▁crea	-11.9661
▁custo	-11.9662
▁pornograph	-11.9662
▁Dmitr	-11.9664
▁riso	-11.9664
▁Governo	-11.9665
▁navigat	-11.9667
▁occupation	-11.9667
▁nac	-11.9667
▁Invest	-11.9668
▁preserv	-11.9669
▁Fernand	-11.967
▁servi	-11.9671
日	-11.9672
こ	-11.9672
▁clima	-11.9672
▁politica	-11.9672
▁kullanım	-11.9672
pathogen	-11.9673
▁spiritual	-11.9673
▁weakness	-11.9673
elebration	-11.9673
▁Regard	-11.9674
ognitive	-11.9674
同	-11.9674
worker	-11.9674
opular	-11.9674
▁erkek	-11.9674
▁Import	-11.9674
▁Copy	-11.9674
発	-11.9674
▁Marx	-11.9674
明	-11.9674
▁exempt	-11.9675
わ	-11.9675
Ç	-11.9675
成	-11.9675
▁Kupfer	-11.9675
▁Stovner	-11.9675
\	-11.9675
見	-11.9675
▁Cross	-11.9675
▁Philipp	-11.9675
大	-11.9675
▁Princip	-11.9675
▁Stewart	-11.9675
▁bargain	-11.9675
▁celebrities	-11.9675
▁comincia	-11.9675
▁orchestrat	-11.9675
▁про	-11.9675
野	-11.9675
▁Lauderdale	-11.9675
▁biodegrad	-11.9675
▁rescind	-11.9675
▁retcon	-11.9675
▁surrender	-11.9675
▁yardımcı	-11.9675
Congratulations	-11.9675
Guillen	-11.9675
Medellin	-11.9675
NARUTO	-11.9675
OpEcuador	-11.9675
Snatch	-11.9675
commandocentrale	-11.9675
pprentice	-11.9675
realDonaldTrump	-11.9675
schnitt	-11.9675
tikamek	-11.9675
trophic	-11.9675
×	-11.9675
ância	-11.9675
▁##2##	-11.9675
▁ACLU	-11.9675
▁Annabelle	-11.9675
▁Assessment	-11.9675
▁Bechard	-11.9675
▁Bengaluru	-11.9675
▁Benhabib	-11.9675
▁Berlin	-11.9675
▁BitPay	-11.9675
▁Blockchain	-11.9675
▁Blvd	-11.9675
▁Bombendrohung	-11.9675
▁Brooklyn	-11.9675
▁CLETS	-11.9675
▁Caucasian	-11.9675
▁Chomsky	-11.9675
▁Cleveland	-11.9675
▁Consult	-11.9675
▁Culture	-11.9675
▁DDoS	-11.9675
▁DeSantis	-11.9675
▁Dellavedova	-11.9675
▁DerKoun	-11.9675
▁Deripaska	-11.9675
▁Detroit	-11.9675
▁Dhaka	-11.9675
▁Edamame	-11.9675
▁Emirates	-11.9675
▁Eventually	-11.9675
▁Fortunately	-11.9675
▁Fotbal	-11.9675
▁Geldstrafe	-11.9675
▁Gigafactory	-11.9675
▁Haftar	-11.9675
▁Handmaid	-11.9675
▁Isabella	-11.9675
▁Jerusalem	-11.9675
▁Kilimnik	-11.9675
▁Krishna	-11.9675
▁Legislati	-11.9675
▁Lexington	-11.9675
▁Lukaku	-11.9675
▁Madeleine	-11.9675
▁Maltepe	-11.9675
▁Marlins	-11.9675
▁Mourinho	-11.9675
▁PHOTO	-11.9675
▁POLITICO	-11.9675
▁Palicte	-11.9675
▁Panasonic	-11.9675
▁Pirates	-11.9675
▁Planeswalker	-11.9675
▁Pohlad	-11.9675
▁Presidency	-11.9675
▁Público	-11.9675
▁Quebec	-11.9675
▁REPORT	-11.9675
▁Ragtag	-11.9675
▁Referral	-11.9675
▁RelishMix	-11.9675
▁RussiaGate	-11.9675
▁SHARE	-11.9675
▁STATE	-11.9675
▁Sacrament	-11.9675
▁Santiago	-11.9675
▁Sematary	-11.9675
▁Snyder	-11.9675
▁Streaming	-11.9675
▁TCJA	-11.9675
▁Tabernacle	-11.9675
▁Tribune	-11.9675
▁Trudeau	-11.9675
▁Tycoon	-11.9675
▁Ukrainian	-11.9675
▁Vieira	-11.9675
▁Voyager	-11.9675
▁Wernigerode	-11.9675
▁Youtube	-11.9675
▁accumulate	-11.9675
▁acquifere	-11.9675
▁activité	-11.9675
▁advertising	-11.9675
▁allegiance	-11.9675
▁ambiente	-11.9675
▁ambulance	-11.9675
▁antecedente	-11.9675
▁babies	-11.9675
▁behemoth	-11.9675
▁brasileira	-11.9675
▁celebrity	-11.9675
▁chiusura	-11.9675
▁cidadão	-11.9675
▁clinch	-11.9675
▁colabora	-11.9675
▁confiscate	-11.9675
▁constituencies	-11.9675
▁convenience	-11.9675
▁convincing	-11.9675
▁coordinator	-11.9675
▁deceased	-11.9675
▁dioxide	-11.9675
▁disadvantage	-11.9675
▁disgust	-11.9675
▁distrito	-11.9675
▁embargo	-11.9675
▁equivalenc	-11.9675
▁excerpt	-11.9675
▁explosion	-11.9675
▁felicidade	-11.9675
▁furniture	-11.9675
▁geezer	-11.9675
▁giorni	-11.9675
▁güvenl	-11.9675
▁halinde	-11.9675
▁happiness	-11.9675
▁hilarious	-11.9675
▁horribly	-11.9675
▁identical	-11.9675
▁impaired	-11.9675
▁inclination	-11.9675
▁inclusivity	-11.9675
▁ingredient	-11.9675
▁inlichtingen	-11.9675
▁intriguing	-11.9675
▁intruder	-11.9675
▁irrelevant	-11.9675
▁irresponsible	-11.9675
▁italiana	-11.9675
▁juggernaut	-11.9675
▁jusqu	-11.9675
▁können	-11.9675
▁landowners	-11.9675
▁lobbyist	-11.9675
▁luxury	-11.9675
▁marxismo	-11.9675
▁medieval	-11.9675
▁millennials	-11.9675
▁mørk	-11.9675
▁ontwikkeling	-11.9675
▁optimistic	-11.9675
▁outburst	-11.9675
▁oxygen	-11.9675
▁partijbestuur	-11.9675
▁permanece	-11.9675
▁persecution	-11.9675
▁platitudes	-11.9675
▁plazo	-11.9675
▁prescription	-11.9675
▁procedural	-11.9675
▁prueba	-11.9675
▁prática	-11.9675
▁pupils	-11.9675
▁puppet	-11.9675
▁questionnaire	-11.9675
▁scrimmage	-11.9675
▁señal	-11.9675
▁simplicity	-11.9675
▁skepticism	-11.9675
▁skull	-11.9675
▁slaughter	-11.9675
▁technician	-11.9675
▁telephone	-11.9675
▁temperament	-11.9675
▁thermoplastic	-11.9675
▁tortilla	-11.9675
▁transcript	-11.9675
▁treasure	-11.9675
▁tremendous	-11.9675
▁turmoil	-11.9675
▁unfamiliar	-11.9675
▁uranium	-11.9675
▁vaccination	-11.9675
▁verdict	-11.9675
▁versatility	-11.9675
▁vindication	-11.9675
▁vulgar	-11.9675
▁vulnerability	-11.9675
▁época	-11.9675
督	-11.9675
disproportionate	-11.9675
unconstitutional	-11.9675
▁1994	-11.9675
▁Agriculture	-11.9675
▁Alonso	-11.9675
▁Alternative	-11.9675
▁BBFC	-11.9675
▁Bialek	-11.9675
▁CDCR	-11.9675
▁Câm	-11.9675
▁Dembele	-11.9675
▁Earlonne	-11.9675
▁Glasfaser	-11.9675
▁Goinard	-11.9675
▁Huxley	-11.9675
▁Kamiya	-11.9675
▁Kyrie	-11.9675
▁Morgan	-11.9675
▁Nexus	-11.9675
▁Pablo	-11.9675
▁Pikesville	-11.9675
▁Reform	-11.9675
▁Salvini	-11.9675
▁Stefan	-11.9675
▁TIME	-11.9675
▁ThreatConnect	-11.9675
▁Trainspotting	-11.9675
▁Wharf	-11.9675
▁biobank	-11.9675
▁buzz	-11.9675
▁centrist	-11.9675
▁grief	-11.9675
▁irrevers	-11.9675
▁jamais	-11.9675
▁orgánico	-11.9675
▁problemlerini	-11.9675
▁prowess	-11.9675
▁registry	-11.9675
▁reluctant	-11.9675
▁retaliat	-11.9675
▁rifle	-11.9675
▁sinister	-11.9675
▁staggering	-11.9675
▁triangle	-11.9675
▁unequivocal	-11.9675
▁vacant	-11.9675
▁veterinar	-11.9675
IBank	-11.9675
adjacent	-11.9675
errestrial	-11.9675
▁Además	-11.9675
▁Ancak	-11.9675
▁Family	-11.9675
▁Franklin	-11.9675
▁Genesis	-11.9675
▁Hueso	-11.9675
▁Olmo	-11.9675
▁Ontario	-11.9675
▁avatar	-11.9675
▁cookbooks	-11.9675
▁polemic	-11.9675
▁rallies	-11.9675
▁unrecuse	-11.9675
envelope	-11.9675
▁Drilling	-11.9675
▁Wyden	-11.9675
▁bottlenecks	-11.9675
▁bubble	-11.9675
▁bureaucrats	-11.9675
▁elitist	-11.9675
▁fisheries	-11.9675
▁snake	-11.9675
▁thugs	-11.9675
▁variants	-11.9675
▁так	-11.9675
-9832	-11.9675
:3000/	-11.9675
BORUTO	-11.9675
▁compatible	-11.9675
▁linebacker	-11.9675
▁princes	-11.9675
▁unexpected	-11.9675
▁Competition	-11.9675
▁Eagle	-11.9675
▁Estonia	-11.9675
▁Raskin	-11.9675
▁Vogt	-11.9675
▁Westinghouse	-11.9675
▁bogus	-11.9675
▁cloak	-11.9675
▁detention	-11.9675
▁grievances	-11.9675
▁membros	-11.9675
▁precisa	-11.9675
▁sociais	-11.9675
▁uprising	-11.9675
Claire	-11.9675
▁Loading	-11.9675
▁devotion	-11.9675
▁skirt	-11.9675
▁unlawful	-11.9675
▁DTM	-11.9675
▁epidemi	-11.9675
▁forensic	-11.9675
▁linha	-11.9675
▁remittances	-11.9675
Anadolu	-11.9675
▁OWC	-11.9675
▁looming	-11.9675
▁pawn	-11.9675
▁sixteen	-11.9675
Country	-11.9675
Crazy	-11.9675
▁CJI	-11.9675
▁Glenn	-11.9675
▁Roeme	-11.9675
▁admirabl	-11.9675
▁elderly	-11.9675
▁senador	-11.9675
▁slogan	-11.9675
▁storia	-11.9675
▁expliqu	-11.9675
▁operator	-11.9675
▁Laredo	-11.9675
▁homicide	-11.9675
▁retelling	-11.9675
▁amassed	-11.9675
▁troops	-11.9675
▁Bonus	-11.9675
▁bookstore	-11.9675
▁dossard	-11.9675
▁starving	-11.9675
gleich	-11.9675
▁NYCFC	-11.9675
▁aguda	-11.9675
▁paradigm	-11.9675
ehind	-11.9675
▁contemplat	-11.9675
話	-11.9675
hommes	-11.9675
ник	-11.9675
▁layoffs	-11.9675
▁scuol	-11.9675
▁MRI	-11.9675
▁tailor	-11.9675
▁Interestingly	-11.9675
▁methane	-11.9675
会	-11.9675
▁envision	-11.9675
▁radar	-11.9675
ommunal	-11.9675
▁contemporane	-11.9675
▁ruthless	-11.9675
▁confess	-11.9675
▁eligibility	-11.9675
▁grain	-11.9675
▁Gallery	-11.9675
▁MLA	-11.9675
▁nonsense	-11.9675
▁bicycle	-11.9675
▁idiot	-11.9675
▁interrupt	-11.9675
▁polariz	-11.9675
▁universities	-11.9675
▁yellow	-11.9675
▁patriarch	-11.9675
▁Battlefront	-11.9675
▁CPI	-11.9675
▁grass	-11.9675
出	-11.9675
木	-11.9675
▁blessing	-11.9675
変	-11.9675
▁Emmy	-11.9675
▁bullied	-11.9675
▁inherit	-11.9675
▁lethal	-11.9675
▁temptation	-11.9675
▁thirty	-11.9675
ATCH	-11.9675
▁Conclusion	-11.9675
▁wedding	-11.9675
▁hijack	-11.9675
infatuat	-11.9675
▁spoilers	-11.9675
ント	-11.9675
▁Survey	-11.9675
▁junto	-11.9675
▁uncertainties	-11.9675
▁framing	-11.9675
▁Denmark	-11.9675
▁Collectors	-11.9675
▁unthinkabl	-11.9675
▁Nephi	-11.9675
▁forecast	-11.9675
▁refute	-11.9675
▁süresi	-11.9675
Craig	-11.9675
rystal	-11.9675
smoking	-11.9675
▁Jiha	-11.9675
▁Introduction	-11.9675
▁Vanecek	-11.9675
ünf	-11.9675
vasive	-11.9675
▁1,100	-11.9675
[...]
